{"<s>": 0, "<pad>": 1, "</s>": 2, "<unk>": 3, "<mask>": 4, "<0x00>": 5, "<0x01>": 6, "<0x02>": 7, "<0x03>": 8, "<0x04>": 9, "<0x05>": 10, "<0x06>": 11, "<0x07>": 12, "<0x08>": 13, "<0x09>": 14, "<0x0A>": 15, "<0x0B>": 16, "<0x0C>": 17, "<0x0D>": 18, "<0x0E>": 19, "<0x0F>": 20, "<0x10>": 21, "<0x11>": 22, "<0x12>": 23, "<0x13>": 24, "<0x14>": 25, "<0x15>": 26, "<0x16>": 27, "<0x17>": 28, "<0x18>": 29, "<0x19>": 30, "<0x1A>": 31, "<0x1B>": 32, "<0x1C>": 33, "<0x1D>": 34, "<0x1E>": 35, "<0x1F>": 36, "<0x20>": 37, "<0x21>": 38, "<0x22>": 39, "<0x23>": 40, "<0x24>": 41, "<0x25>": 42, "<0x26>": 43, "<0x27>": 44, "<0x28>": 45, "<0x29>": 46, "<0x2A>": 47, "<0x2B>": 48, "<0x2C>": 49, "<0x2D>": 50, "<0x2E>": 51, "<0x2F>": 52, "<0x30>": 53, "<0x31>": 54, "<0x32>": 55, "<0x33>": 56, "<0x34>": 57, "<0x35>": 58, "<0x36>": 59, "<0x37>": 60, "<0x38>": 61, "<0x39>": 62, "<0x3A>": 63, "<0x3B>": 64, "<0x3C>": 65, "<0x3D>": 66, "<0x3E>": 67, "<0x3F>": 68, "<0x40>": 69, "<0x41>": 70, "<0x42>": 71, "<0x43>": 72, "<0x44>": 73, "<0x45>": 74, "<0x46>": 75, "<0x47>": 76, "<0x48>": 77, "<0x49>": 78, "<0x4A>": 79, "<0x4B>": 80, "<0x4C>": 81, "<0x4D>": 82, "<0x4E>": 83, "<0x4F>": 84, "<0x50>": 85, "<0x51>": 86, "<0x52>": 87, "<0x53>": 88, "<0x54>": 89, "<0x55>": 90, "<0x56>": 91, "<0x57>": 92, "<0x58>": 93, "<0x59>": 94, "<0x5A>": 95, "<0x5B>": 96, "<0x5C>": 97, "<0x5D>": 98, "<0x5E>": 99, "<0x5F>": 100, "<0x60>": 101, "<0x61>": 102, "<0x62>": 103, "<0x63>": 104, "<0x64>": 105, "<0x65>": 106, "<0x66>": 107, "<0x67>": 108, "<0x68>": 109, "<0x69>": 110, "<0x6A>": 111, "<0x6B>": 112, "<0x6C>": 113, "<0x6D>": 114, "<0x6E>": 115, "<0x6F>": 116, "<0x70>": 117, "<0x71>": 118, "<0x72>": 119, "<0x73>": 120, "<0x74>": 121, "<0x75>": 122, "<0x76>": 123, "<0x77>": 124, "<0x78>": 125, "<0x79>": 126, "<0x7A>": 127, "<0x7B>": 128, "<0x7C>": 129, "<0x7D>": 130, "<0x7E>": 131, "<0x7F>": 132, "<0x80>": 133, "<0x81>": 134, "<0x82>": 135, "<0x83>": 136, "<0x84>": 137, "<0x85>": 138, "<0x86>": 139, "<0x87>": 140, "<0x88>": 141, "<0x89>": 142, "<0x8A>": 143, "<0x8B>": 144, "<0x8C>": 145, "<0x8D>": 146, "<0x8E>": 147, "<0x8F>": 148, "<0x90>": 149, "<0x91>": 150, "<0x92>": 151, "<0x93>": 152, "<0x94>": 153, "<0x95>": 154, "<0x96>": 155, "<0x97>": 156, "<0x98>": 157, "<0x99>": 158, "<0x9A>": 159, "<0x9B>": 160, "<0x9C>": 161, "<0x9D>": 162, "<0x9E>": 163, "<0x9F>": 164, "<0xA0>": 165, "<0xA1>": 166, "<0xA2>": 167, "<0xA3>": 168, "<0xA4>": 169, "<0xA5>": 170, "<0xA6>": 171, "<0xA7>": 172, "<0xA8>": 173, "<0xA9>": 174, "<0xAA>": 175, "<0xAB>": 176, "<0xAC>": 177, "<0xAD>": 178, "<0xAE>": 179, "<0xAF>": 180, "<0xB0>": 181, "<0xB1>": 182, "<0xB2>": 183, "<0xB3>": 184, "<0xB4>": 185, "<0xB5>": 186, "<0xB6>": 187, "<0xB7>": 188, "<0xB8>": 189, "<0xB9>": 190, "<0xBA>": 191, "<0xBB>": 192, "<0xBC>": 193, "<0xBD>": 194, "<0xBE>": 195, "<0xBF>": 196, "<0xC0>": 197, "<0xC1>": 198, "<0xC2>": 199, "<0xC3>": 200, "<0xC4>": 201, "<0xC5>": 202, "<0xC6>": 203, "<0xC7>": 204, "<0xC8>": 205, "<0xC9>": 206, "<0xCA>": 207, "<0xCB>": 208, "<0xCC>": 209, "<0xCD>": 210, "<0xCE>": 211, "<0xCF>": 212, "<0xD0>": 213, "<0xD1>": 214, "<0xD2>": 215, "<0xD3>": 216, "<0xD4>": 217, "<0xD5>": 218, "<0xD6>": 219, "<0xD7>": 220, "<0xD8>": 221, "<0xD9>": 222, "<0xDA>": 223, "<0xDB>": 224, "<0xDC>": 225, "<0xDD>": 226, "<0xDE>": 227, "<0xDF>": 228, "<0xE0>": 229, "<0xE1>": 230, "<0xE2>": 231, "<0xE3>": 232, "<0xE4>": 233, "<0xE5>": 234, "<0xE6>": 235, "<0xE7>": 236, "<0xE8>": 237, "<0xE9>": 238, "<0xEA>": 239, "<0xEB>": 240, "<0xEC>": 241, "<0xED>": 242, "<0xEE>": 243, "<0xEF>": 244, "<0xF0>": 245, "<0xF1>": 246, "<0xF2>": 247, "<0xF3>": 248, "<0xF4>": 249, "<0xF5>": 250, "<0xF6>": 251, "<0xF7>": 252, "<0xF8>": 253, "<0xF9>": 254, "<0xFA>": 255, "<0xFB>": 256, "<0xFC>": 257, "<0xFD>": 258, "<0xFE>": 259, "<0xFF>": 260, "an": 261, "▁t": 262, "▁s": 263, "er": 264, "in": 265, "▁m": 266, "▁a": 267, "en": 268, "▁b": 269, "▁d": 270, "▁p": 271, "at": 272, "▁th": 273, "ar": 274, "்க": 275, "la": 276, "▁k": 277, "on": 278, "ang": 279, "▁i": 280, "▁h": 281, "▁c": 282, "ak": 283, "்த": 284, "or": 285, "▁w": 286, "▁the": 287, "ம்": 288, "es": 289, "un": 290, "as": 291, "ya": 292, "al": 293, "ing": 294, "ah": 295, "em": 296, "ன்": 297, "it": 298, "▁f": 299, "▁o": 300, "le": 301, "ல்": 302, "▁an": 303, "ed": 304, "▁r": 305, "▁ப": 306, "▁y": 307, "▁n": 308, "க்க": 309, "▁in": 310, "am": 311, "▁ம": 312, "்ப": 313, "da": 314, "▁க": 315, "▁di": 316, "்ட": 317, "▁se": 318, "ும்": 319, "▁to": 320, "த்த": 321, "ou": 322, "▁அ": 323, "el": 324, "▁வ": 325, "is": 326, "ik": 327, "▁men": 328, "ள்": 329, "▁l": 330, "▁j": 331, "ிய": 332, "▁இ": 333, "▁sa": 334, "து": 335, "ap": 336, "▁g": 337, "uk": 338, "ப்ப": 339, "et": 340, "▁ச": 341, "id": 342, "us": 343, "il": 344, "ர்": 345, "ur": 346, "▁of": 347, "ரு": 348, "▁த": 349, "om": 350, "▁and": 351, "ut": 352, "▁ந": 353, "ந்த": 354, "ic": 355, "ட்ட": 356, "ent": 357, "kan": 358, "ில்": 359, "▁saya": 360, "ad": 361, "ir": 362, "ion": 363, "▁ber": 364, "▁yang": 365, "lah": 366, "▁எ": 367, "ot": 368, "re": 369, "▁e": 370, "▁be": 371, "ங்க": 372, "▁per": 373, "▁it": 374, "▁is": 375, "ைய": 376, "..": 377, "im": 378, "eng": 379, "▁mem": 380, "ul": 381, "▁un": 382, "▁dan": 383, "▁ke": 384, "um": 385, "os": 386, "ga": 387, "ற்": 388, "▁la": 389, "ow": 390, "ாக": 391, "ve": 392, "ac": 393, "ின்": 394, "ிற": 395, "ala": 396, "ற்ற": 397, "▁ter": 398, "▁st": 399, "ih": 400, "▁உ": 401, "ly": 402, "▁you": 403, "▁wh": 404, "▁ak": 405, "▁on": 406, "ol": 407, "ere": 408, "டு": 409, "ada": 410, "▁pr": 411, "▁for": 412, "▁1": 413, "▁tid": 414, "▁le": 415, "ிர": 416, "▁al": 417, "ari": 418, "▁tidak": 419, "ிக": 420, "ec": 421, "▁unt": 422, "ia": 423, "ver": 424, "▁aku": 425, "ay": 426, "ான": 427, "ab": 428, "gh": 429, "▁ஆ": 430, "up": 431, "▁untuk": 432, "ter": 433, "ள்ள": 434, "▁or": 435, "க்கு": 436, "ant": 437, "ண்ட": 438, "▁ch": 439, "▁that": 440, "od": 441, "▁at": 442, "ில": 443, "▁as": 444, "▁re": 445, "gi": 446, "nya": 447, "ர்க": 448, "ud": 449, "op": 450, "்ச": 451, "▁2": 452, "ti": 453, "ai": 454, "▁ada": 455, "▁meng": 456, "ation": 457, "▁மு": 458, "aw": 459, "▁sh": 460, "▁me": 461, "asa": 462, "று": 463, "00": 464, "st": 465, "ung": 466, "▁deng": 467, "▁(": 468, "leh": 469, "akan": 470, "ch": 471, "▁dengan": 472, "th": 473, "த்து": 474, "ce": 475, "▁anda": 476, "and": 477, "end": 478, "▁ini": 479, "ிக்க": 480, "ith": 481, "ong": 482, "ok": 483, "ri": 484, "▁செ": 485, "▁tak": 486, "▁bo": 487, "▁seb": 488, "▁என்": 489, "▁ஒ": 490, "▁ap": 491, "▁with": 492, "ess": 493, "ka": 494, "ார": 495, "▁memb": 496, "▁ne": 497, "ill": 498, "ja": 499, "ana": 500, "▁are": 501, "anya": 502, "▁con": 503, "▁v": 504, "alam": 505, "▁ha": 506, "▁he": 507, "▁not": 508, "▁dia": 509, "லை": 510, "est": 511, "▁ba": 512, "se": 513, "ிவ": 514, "ார்": 515, "ara": 516, "▁de": 517, "au": 518, "ப்": 519, "per": 520, "lu": 521, "▁ker": 522, "▁te": 523, "▁கு": 524, "▁ad": 525, "ct": 526, "▁com": 527, "ளை": 528, "▁can": 529, "▁sem": 530, "▁so": 531, "ுக": 532, "ld": 533, "▁we": 534, "pat": 535, "▁இந்த": 536, "ore": 537, "ub": 538, "▁this": 539, "...": 540, "ிரு": 541, "▁மற்ற": 542, "▁boleh": 543, "ps": 544, "ust": 545, "▁my": 546, "ால்": 547, "▁have": 548, "api": 549, "ua": 550, "▁mere": 551, "▁go": 552, "▁but": 553, "ட்டு": 554, "co": 555, "▁@": 556, "டி": 557, "adi": 558, "▁pada": 559, "ama": 560, "▁akan": 561, "▁mereka": 562, "▁ex": 563, "▁இரு": 564, "tt": 565, "▁was": 566, "any": 567, "▁செய": 568, "▁அவ": 569, "▁fr": 570, "▁dalam": 571, "ங்கள்": 572, "ain": 573, "▁மற்றும்": 574, "igh": 575, "uh": 576, "▁tr": 577, "▁pe": 578, "ின": 579, "ாவ": 580, "ைக": 581, "▁tah": 582, "▁dari": 583, "ate": 584, "apa": 585, "ukan": 586, "ag": 587, "ந்து": 588, "▁நா": 589, "▁orang": 590, "ian": 591, "தி": 592, "//": 593, "▁us": 594, "ers": 595, "▁வி": 596, "▁kam": 597, "://": 598, "angan": 599, "▁do": 600, "qu": 601, "ib": 602, "▁htt": 603, "if": 604, "ika": 605, "uat": 606, "ல்ல": 607, "ita": 608, "▁am": 609, "ளு": 610, "▁கொ": 611, "▁அத": 612, "ர்கள்": 613, "ச்ச": 614, "▁pen": 615, "▁ab": 616, "▁pro": 617, "▁itu": 618, "amp": 619, "மை": 620, "ig": 621, "ff": 622, "▁https": 623, "ist": 624, "▁ஒரு": 625, "த்": 626, "ila": 627, "ity": 628, "art": 629, "▁if": 630, "▁they": 631, "ாய": 632, "▁ju": 633, "lak": 634, "ome": 635, "▁bah": 636, "pada": 637, "▁sek": 638, "ரி": 639, "▁mak": 640, "▁by": 641, "வே": 642, "emb": 643, "01": 644, "▁mas": 645, "ally": 646, "▁தொ": 647, "ப்பு": 648, "ould": 649, "one": 650, "▁adalah": 651, "▁sp": 652, "▁from": 653, "▁wor": 654, "▁3": 655, "ற்க": 656, "▁tet": 657, "ikan": 658, "▁போ": 659, "ிறது": 660, "ind": 661, "ort": 662, "▁will": 663, "▁\"": 664, "bih": 665, "ாத": 666, "ro": 667, "வு": 668, "▁பெ": 669, "ிட": 670, "ost": 671, "amb": 672, "▁வே": 673, "▁tu": 674, "ுவ": 675, "▁ia": 676, "▁jika": 677, "▁என": 678, "lam": 679, "int": 680, "▁-": 681, "▁co": 682, "த்தில்": 683, "ஸ்": 684, "▁lo": 685, "▁ni": 686, "ect": 687, "ip": 688, "aha": 689, "。。": 690, "ike": 691, "▁கா": 692, "ali": 693, "ati": 694, "▁lebih": 695, "ard": 696, "▁tetapi": 697, "▁no": 698, "க்": 699, "▁masa": 700, "ight": 701, "▁tim": 702, "▁su": 703, "▁nak": 704, "her": 705, "ear": 706, "und": 707, "▁all": 708, "very": 709, "orang": 710, "▁has": 711, "▁'": 712, "ment": 713, "angat": 714, "▁lah": 715, "▁there": 716, "out": 717, "ys": 718, "▁.": 719, "ன்ற": 720, "-2": 721, "ure": 722, "▁ர": 723, "awa": 724, "ek": 725, "tr": 726, "▁pas": 727, "▁juga": 728, "ப்பட்ட": 729, "so": 730, "▁பிர": 731, "க்கும்": 732, "▁one": 733, "ata": 734, "ையில்": 735, "iv": 736, "ber": 737, "all": 738, "atan": 739, "▁like": 740, "▁மா": 741, "▁ஏ": 742, "▁kita": 743, "oh": 744, "▁meny": 745, "一个": 746, "▁bar": 747, "▁உள்ள": 748, "▁your": 749, "மான": 750, "▁menj": 751, "மாக": 752, "▁ser": 753, "▁res": 754, "ிட்ட": 755, "ப்பட": 756, "unya": 757, "ான்": 758, "▁hanya": 759, "ine": 760, "▁sangat": 761, "▁peng": 762, "ell": 763, "▁up": 764, "▁மே": 765, "alan": 766, "▁comp": 767, "▁dis": 768, "atu": 769, "டுக": 770, "▁ac": 771, "ம்ப": 772, "ளில்": 773, "▁வெ": 774, "akah": 775, "aya": 776, "▁im": 777, "▁apa": 778, "லா": 779, "▁ar": 780, "▁just": 781, "▁har": 782, "ண்": 783, "னை": 784, "uan": 785, "▁நீ": 786, "uc": 787, "ies": 788, "ice": 789, "டிய": 790, "ுத": 791, "▁bel": 792, "▁atau": 793, "ous": 794, "▁இது": 795, "னர்": 796, "▁கூ": 797, "ge": 798, "anyak": 799, "ial": 800, "ie": 801, "ளுக்கு": 802, "enar": 803, "டுத்த": 804, "றை": 805, "▁kepada": 806, "▁sy": 807, "▁baik": 808, "▁நட": 809, "ough": 810, "▁telah": 811, "ven": 812, "▁பா": 813, "our": 814, "▁who": 815, "▁dap": 816, "▁when": 817, "pt": 818, "▁also": 819, "▁5": 820, "ive": 821, "▁பொ": 822, "▁don": 823, "▁memp": 824, "்வ": 825, "uar": 826, "▁out": 827, "▁gr": 828, "▁bec": 829, "可以": 830, "▁time": 831, "ula": 832, "▁kn": 833, "வும்": 834, "▁ken": 835, "kin": 836, "▁dah": 837, "▁more": 838, "றி": 839, "ina": 840, "▁我": 841, "▁bet": 842, "▁sed": 843, "der": 844, "pl": 845, "ற்ப": 846, "▁what": 847, "▁oleh": 848, "▁ind": 849, "▁4": 850, "▁0": 851, "▁தே": 852, "act": 853, "dapat": 854, "ans": 855, "aj": 856, "▁their": 857, "asi": 858, "த்தை": 859, "ide": 860, "▁fe": 861, "▁adakah": 862, "ண்டு": 863, "ையும்": 864, "▁lagi": 865, "ink": 866, "iao": 867, "▁banyak": 868, "▁hari": 869, "iz": 870, "ack": 871, "▁mer": 872, "udah": 873, "▁kel": 874, "aga": 875, "▁dapat": 876, "og": 877, "▁ag": 878, "▁en": 879, "▁bahawa": 880, "ich": 881, "▁semua": 882, "▁menc": 883, "▁some": 884, "angg": 885, "arang": 886, "ople": 887, "ase": 888, "ட்ச": 889, "▁mempunya": 890, "▁jadi": 891, "ெர": 892, "▁br": 893, "▁mempunyai": 894, "▁ஆக": 895, "ாள": 896, "▁people": 897, "▁how": 898, "▁,": 899, "aus": 900, "orm": 901, "ளின்": 902, "▁his": 903, "ிற்க": 904, "▁kerana": 905, "las": 906, "unt": 907, "▁ses": 908, "▁அர": 909, "▁mel": 910, "are": 911, "▁mana": 912, "port": 913, "▁ing": 914, "▁qu": 915, "▁kamu": 916, "ose": 917, "▁இத": 918, "▁kes": 919, "oc": 920, "்ய": 921, "▁tem": 922, "ated": 923, "ன்ன": 924, "▁tahun": 925, "ame": 926, "▁lain": 927, "டைய": 928, "▁tahu": 929, "aran": 930, "ely": 931, "▁perlu": 932, "iri": 933, "ual": 934, "ச்": 935, "▁பய": 936, "ach": 937, "ep": 938, "▁any": 939, "▁ஜ": 940, "▁str": 941, "ry": 942, "▁about": 943, "▁know": 944, "▁aw": 945, "▁x": 946, "uka": 947, "ue": 948, "ழு": 949, "ast": 950, "gun": 951, "டன்": 952, "ult": 953, "▁sec": 954, "▁z": 955, "ால": 956, "ents": 957, "ண்டும்": 958, "▁min": 959, "▁pun": 960, "▁seper": 961, "ish": 962, "ima": 963, "▁pm": 964, "af": 965, "▁sing": 966, "▁af": 967, "▁seperti": 968, "ihat": 969, "ட்": 970, "ens": 971, "▁kami": 972, "▁berk": 973, "▁bu": 974, "▁வழ": 975, "▁பு": 976, "▁work": 977, "▁kem": 978, "▁என்று": 979, "pas": 980, "ungkin": 981, "ின்ற": 982, "▁than": 983, "▁mar": 984, "ite": 985, "lalu": 986, "▁only": 987, "我们": 988, "▁இந்திய": 989, "▁her": 990, "▁mah": 991, "வத": 992, "ause": 993, "▁liao": 994, "pr": 995, "▁bukan": 996, "▁sel": 997, "ions": 998, "ரை": 999, "itu": 1000, "umah": 1001, "▁bers": 1002, "▁oth": 1003, "▁want": 1004, "alau": 1005, "ள்ளது": 1006, "ence": 1007, "▁தொட": 1008, "▁tapi": 1009, "வை": 1010, "▁என்ப": 1011, "▁them": 1012, "▁inter": 1013, "▁man": 1014, "pa": 1015, "ரா": 1016, "த்தின்": 1017, "▁year": 1018, "்த்த": 1019, "ical": 1020, "anc": 1021, "▁satu": 1022, "▁baru": 1023, "ingg": 1024, "▁new": 1025, "▁then": 1026, "சிய": 1027, "▁pergi": 1028, "ிகள்": 1029, "▁int": 1030, "வில்": 1031, "▁she": 1032, "▁get": 1033, "▁sama": 1034, "ob": 1035, "▁par": 1036, "▁மூ": 1037, "ும்ப": 1038, "▁je": 1039, "▁mungkin": 1040, "▁rec": 1041, "vel": 1042, "他们": 1043, "வி": 1044, "▁ya": 1045, "uj": 1046, "▁அமை": 1047, "▁sc": 1048, "▁ட": 1049, "▁pla": 1050, "▁bi": 1051, "ign": 1052, "ன்ப": 1053, "▁என்ற": 1054, "▁rumah": 1055, "ளி": 1056, "▁even": 1057, "▁now": 1058, "▁அதிக": 1059, "▁menjadi": 1060, "led": 1061, "ரிய": 1062, "ks": 1063, "▁mengh": 1064, "▁எனவே": 1065, "kat": 1066, "but": 1067, "▁dr": 1068, "▁masih": 1069, "-1": 1070, "▁pem": 1071, "▁6": 1072, "▁கோ": 1073, "▁pos": 1074, "▁10": 1075, "agai": 1076, "மு": 1077, "▁which": 1078, "ance": 1079, "pan": 1080, "▁fir": 1081, "ma": 1082, "▁sup": 1083, "▁were": 1084, "ப்பட்டு": 1085, "▁முத": 1086, "ini": 1087, "ற்று": 1088, "▁செய்ய": 1089, "be": 1090, "▁because": 1091, "▁பே": 1092, "▁send": 1093, "ater": 1094, "▁pl": 1095, "▁mala": 1096, "!!": 1097, "▁inc": 1098, "▁ket": 1099, "▁ph": 1100, "▁set": 1101, "▁makan": 1102, "▁si": 1103, "▁cr": 1104, "னால்": 1105, "▁off": 1106, "▁had": 1107, "ulan": 1108, "▁would": 1109, "▁em": 1110, "uct": 1111, "own": 1112, "▁cont": 1113, "age": 1114, "-201": 1115, "▁நில": 1116, "▁say": 1117, "▁cl": 1118, "▁after": 1119, "ோம்": 1120, "▁good": 1121, "▁every": 1122, "▁may": 1123, "▁been": 1124, "▁pol": 1125, "மா": 1126, "▁need": 1127, "▁anak": 1128, "ile": 1129, "▁kaw": 1130, "▁tent": 1131, "வர்": 1132, "கு": 1133, "hir": 1134, "ker": 1135, "▁member": 1136, "able": 1137, "hing": 1138, "▁து": 1139, "டை": 1140, "▁அல்ல": 1141, "ace": 1142, "pen": 1143, "▁这": 1144, "▁在": 1145, "ree": 1146, "▁bert": 1147, "▁still": 1148, "▁pern": 1149, "eli": 1150, "மைய": 1151, "▁வரு": 1152, "gunakan": 1153, "ary": 1154, "டுத்து": 1155, "000": 1156, "▁வா": 1157, "▁சு": 1158, "▁other": 1159, "▁think": 1160, "ger": 1161, "க்கிய": 1162, "▁u": 1163, "▁mu": 1164, "ன்று": 1165, "▁sebab": 1166, "▁rm": 1167, "没有": 1168, "ித": 1169, "▁rasa": 1170, "ோது": 1171, "▁ti": 1172, "▁ய": 1173, "▁tan": 1174, "si": 1175, "ிற்கு": 1176, "▁ingin": 1177, "▁=": 1178, "ahan": 1179, "▁day": 1180, "▁ked": 1181, "த்திய": 1182, "▁நிற": 1183, "ings": 1184, "ற்கு": 1185, "▁#": 1186, "▁குறி": 1187, "▁part": 1188, "▁mac": 1189, "▁sudah": 1190, "▁po": 1191, "▁sekarang": 1192, "ba": 1193, "▁mo": 1194, "▁19": 1195, "▁செய்த": 1196, "▁seorang": 1197, "▁sebagai": 1198, "kah": 1199, "ick": 1200, "▁இருக்க": 1201, "▁did": 1202, "we": 1203, "▁our": 1204, "▁pers": 1205, "்ப்ப": 1206, "▁வேண்டும்": 1207, "▁its": 1208, "jar": 1209, "▁7": 1210, "ations": 1211, "form": 1212, "▁very": 1213, "inya": 1214, "ement": 1215, "gr": 1216, "eta": 1217, "sa": 1218, "▁car": 1219, "▁over": 1220, "ணை": 1221, "ைகள்": 1222, "▁kas": 1223, "▁kat": 1224, "தாக": 1225, "▁buat": 1226, "▁singap": 1227, "ump": 1228, "▁daripada": 1229, "other": 1230, "▁beg": 1231, "நில": 1232, "▁high": 1233, "சு": 1234, "▁app": 1235, "▁sm": 1236, "▁sendiri": 1237, "▁“": 1238, "வா": 1239, "av": 1240, "▁மீ": 1241, "ition": 1242, "angkan": 1243, "▁20": 1244, "▁ro": 1245, "▁kalau": 1246, "னு": 1247, "▁fo": 1248, "ild": 1249, "ித்த": 1250, "▁சே": 1251, "read": 1252, "day": 1253, "▁said": 1254, "ிழ": 1255, "研究": 1256, "ங்கள": 1257, "ரும்": 1258, "▁8": 1259, "▁mod": 1260, "▁tw": 1261, "20": 1262, "▁should": 1263, "berapa": 1264, "▁பல": 1265, "old": 1266, "▁gu": 1267, ").": 1268, "▁stud": 1269, "▁beberapa": 1270, "▁இர": 1271, "▁many": 1272, "▁சம": 1273, "▁மிக": 1274, "▁berm": 1275, "▁கொண்ட": 1276, "ிலும்": 1277, "▁malays": 1278, "▁kena": 1279, "▁bas": 1280, "arik": 1281, "ily": 1282, "▁des": 1283, "enc": 1284, "iti": 1285, "na": 1286, "▁baga": 1287, "ambil": 1288, "如果": 1289, "▁pre": 1290, "்கள்": 1291, "ory": 1292, "ாட்ட": 1293, "▁sur": 1294, "▁long": 1295, "),": 1296, "▁pernah": 1297, "▁air": 1298, "ியில்": 1299, "reat": 1300, "▁him": 1301, "▁first": 1302, "bu": 1303, "de": 1304, "ண்ண": 1305, "▁ma": 1306, "▁ok": 1307, "▁perk": 1308, "▁kan": 1309, "ேன்": 1310, "▁see": 1311, "▁எத": 1312, "▁keluar": 1313, "▁pert": 1314, "gu": 1315, "▁ah": 1316, "let": 1317, "▁தெர": 1318, "way": 1319, "com": 1320, "▁bagaim": 1321, "ைக்": 1322, "▁back": 1323, "low": 1324, "ade": 1325, "சி": 1326, "▁met": 1327, "▁macam": 1328, "▁kerja": 1329, "▁diff": 1330, "▁சிற": 1331, "லி": 1332, "▁china": 1333, "▁இய": 1334, "▁selam": 1335, "▁under": 1336, "தை": 1337, "▁அற": 1338, "▁கட": 1339, "进行": 1340, "ாம": 1341, "ond": 1342, "▁leh": 1343, "elum": 1344, "ilik": 1345, "▁அது": 1346, "▁நீங்கள்": 1347, "▁bes": 1348, "▁நான்": 1349, "▁pel": 1350, "▁pak": 1351, "wa": 1352, "▁pemb": 1353, "ப்படுக": 1354, "ikir": 1355, "ife": 1356, "▁இருந்த": 1357, "ங்களை": 1358, "▁தலை": 1359, "vers": 1360, "▁cer": 1361, "▁mon": 1362, "▁sim": 1363, "ord": 1364, "▁sebelum": 1365, "▁bagi": 1366, "▁tentang": 1367, "▁melihat": 1368, "ira": 1369, "▁menggunakan": 1370, "sh": 1371, "自己": 1372, "kerja": 1373, "▁malaysia": 1374, "app": 1375, "apan": 1376, "லாம்": 1377, "ிருக்க": 1378, "ese": 1379, "▁9": 1380, "▁dit": 1381, "▁அல்லது": 1382, "▁samp": 1383, "▁tempat": 1384, "▁kasih": 1385, "▁dat": 1386, "ர்க்க": 1387, "▁jangan": 1388, "▁act": 1389, "▁ob": 1390, "▁ஐ": 1391, "lo": 1392, "ning": 1393, "▁ஆனால்": 1394, "fore": 1395, "中国": 1396, "லக": 1397, "▁let": 1398, "vid": 1399, "ர்கள": 1400, "▁yg": 1401, "ையை": 1402, "▁ku": 1403, "▁prod": 1404, "▁மேல": 1405, "--": 1406, "可能": 1407, "▁comm": 1408, "ணி": 1409, "▁அள": 1410, "ami": 1411, "▁கே": 1412, "angk": 1413, "ியு": 1414, "ise": 1415, "▁got": 1416, "ech": 1417, "▁post": 1418, "▁terima": 1419, "什么": 1420, "▁நாம்": 1421, "问题": 1422, "arkan": 1423, "ors": 1424, "▁secara": 1425, "▁pa": 1426, "▁அவர்": 1427, "▁make": 1428, "ோத": 1429, "▁என்ன": 1430, "ர்வ": 1431, "ci": 1432, "▁எதிர": 1433, "▁look": 1434, "bo": 1435, "▁பின்": 1436, "cess": 1437, "▁neg": 1438, "asan": 1439, "▁into": 1440, "▁kec": 1441, "idup": 1442, "கா": 1443, "▁haha": 1444, "anj": 1445, "wn": 1446, "riend": 1447, "▁dib": 1448, "▁தீ": 1449, "lect": 1450, "▁take": 1451, "▁நி": 1452, "▁kereta": 1453, "▁seti": 1454, "▁membuat": 1455, "▁cons": 1456, "lepas": 1457, "▁bila": 1458, "வ்வ": 1459, "abila": 1460, "ons": 1461, "ஸ்ட": 1462, "ft": 1463, "▁தொழ": 1464, "ிக்": 1465, "▁சொ": 1466, "▁put": 1467, "50": 1468, "tu": 1469, "▁setiap": 1470, "▁too": 1471, "▁kali": 1472, "▁berh": 1473, "ont": 1474, "▁masalah": 1475, "??": 1476, "▁12": 1477, "ra": 1478, "ிவு": 1479, "▁mat": 1480, "inta": 1481, "▁அம": 1482, "▁நே": 1483, "upun": 1484, "▁apabila": 1485, "pe": 1486, "▁வர": 1487, "ாய்": 1488, "ulu": 1489, "ங்கு": 1490, "公司": 1491, "ph": 1492, "▁feel": 1493, "▁diri": 1494, "方法": 1495, "▁tur": 1496, "ுகள்": 1497, "▁201": 1498, "▁really": 1499, "▁rem": 1500, "ைக்க": 1501, "ிருந்த": 1502, "▁பொரு": 1503, "▁exp": 1504, "ank": 1505, "▁most": 1506, "▁dec": 1507, "oth": 1508, "bl": 1509, "▁berb": 1510, "ful": 1511, "ியாக": 1512, "▁ins": 1513, "▁ask": 1514, "yah": 1515, "li": 1516, "stem": 1517, "▁wala": 1518, "த்துவ": 1519, "▁use": 1520, "alik": 1521, "ilih": 1522, "▁does": 1523, "ிருந்து": 1524, "▁two": 1525, "▁why": 1526, "▁sen": 1527, "▁inv": 1528, "ict": 1529, "வில்லை": 1530, "itt": 1531, "▁ஆகிய": 1532, "▁hel": 1533, "▁sub": 1534, "gn": 1535, "▁col": 1536, "▁eff": 1537, "▁wan": 1538, "▁lor": 1539, "▁11": 1540, "omet": 1541, "▁அந்த": 1542, "lakukan": 1543, "▁years": 1544, "man": 1545, "put": 1546, "▁terdapat": 1547, "ின்றன": 1548, "sebut": 1549, "xt": 1550, "▁இட": 1551, "ரோ": 1552, "▁last": 1553, "▁உய": 1554, "ங்களில்": 1555, "▁வீ": 1556, "▁suka": 1557, "▁allah": 1558, "laki": 1559, "bab": 1560, "▁system": 1561, "oy": 1562, "▁terus": 1563, "▁med": 1564, "▁betul": 1565, "▁fam": 1566, "குத": 1567, "tive": 1568, "▁mela": 1569, "▁மூல": 1570, "ually": 1571, "inggal": 1572, "▁besar": 1573, "get": 1574, "▁before": 1575, "▁perc": 1576, "因为": 1577, "▁gen": 1578, "▁these": 1579, "▁ting": 1580, "டிக்க": 1581, "ket": 1582, "▁விர": 1583, "ura": 1584, "▁mengambil": 1585, "。。。": 1586, "▁lelaki": 1587, "ார்கள்": 1588, "▁teng": 1589, "▁ல": 1590, "sel": 1591, "▁ஏற்ப": 1592, "▁sebenar": 1593, "ொரு": 1594, "▁war": 1595, "▁inst": 1596, "ற்றி": 1597, "▁本": 1598, "▁rel": 1599, "aman": 1600, "ஸ்த": 1601, "ious": 1602, "ving": 1603, "▁bulan": 1604, "▁membeli": 1605, "▁walaupun": 1606, "ாரண": 1607, "▁மேலும்": 1608, "▁well": 1609, "edit": 1610, "▁பத": 1611, "▁fin": 1612, "ved": 1613, "▁thr": 1614, "▁kad": 1615, "▁trans": 1616, "▁முடிய": 1617, "▁திட்ட": 1618, "▁menga": 1619, "▁பிரத": 1620, "gan": 1621, "round": 1622, "▁ent": 1623, "▁down": 1624, "▁much": 1625, "atakan": 1626, "▁person": 1627, "oss": 1628, "▁way": 1629, "aling": 1630, "ating": 1631, "▁மக்க": 1632, "▁ஹ": 1633, "he": 1634, "▁dua": 1635, "▁kau": 1636, "▁200": 1637, "▁could": 1638, "▁பயன்ப": 1639, "ெய": 1640, "▁பி": 1641, "min": 1642, "▁ram": 1643, "வர": 1644, "10": 1645, "ble": 1646, "▁mendapat": 1647, "ியை": 1648, "▁tal": 1649, "ope": 1650, "▁memang": 1651, "ல்ப": 1652, "wan": 1653, "ower": 1654, "系统": 1655, "▁friend": 1656, "akap": 1657, "▁those": 1658, "▁lama": 1659, "▁bus": 1660, "美国": 1661, "▁keb": 1662, "▁வருக": 1663, "▁conf": 1664, "▁kawan": 1665, "ர்ப": 1666, "ck": 1667, "▁el": 1668, "▁harga": 1669, "az": 1670, "就是": 1671, "ப்படும்": 1672, "ப்பத": 1673, "iss": 1674, "uran": 1675, "▁sin": 1676, "▁sch": 1677, "▁ஊ": 1678, "这个": 1679, "-200": 1680, "▁start": 1681, "lajar": 1682, "▁பட": 1683, "▁ibu": 1684, "▁right": 1685, "▁குறிப்ப": 1686, "ungan": 1687, "▁begitu": 1688, "▁பார": 1689, "▁jam": 1690, "▁kom": 1691, "par": 1692, "▁முதல்": 1693, "▁你": 1694, "▁தன": 1695, "▁tersebut": 1696, "▁inf": 1697, "工作": 1698, "▁பண": 1699, "▁சில": 1700, "gain": 1701, "மே": 1702, "த்திற்கு": 1703, "ying": 1704, "lain": 1705, "▁where": 1706, "▁ut": 1707, "olah": 1708, "▁cur": 1709, "▁sila": 1710, "需要": 1711, "▁ben": 1712, "▁differ": 1713, "▁being": 1714, "லு": 1715, "▁dun": 1716, "▁main": 1717, "▁திரு": 1718, "但是": 1719, "▁sk": 1720, "▁masuk": 1721, "▁தெரிவ": 1722, "டுக்க": 1723, "era": 1724, "▁ear": 1725, "使用": 1726, "▁chang": 1727, "tiv": 1728, "▁selepas": 1729, "நா": 1730, "▁hati": 1731, "▁கட்ட": 1732, "▁வழங்க": 1733, "▁atas": 1734, "▁reg": 1735, "ert": 1736, "ஞ்ச": 1737, "▁here": 1738, "ahkan": 1739, "▁இருக்கும்": 1740, "▁இப்ப": 1741, "▁வெள": 1742, "的人": 1743, "▁again": 1744, "▁hah": 1745, "ல்க": 1746, "▁jalan": 1747, "ates": 1748, "con": 1749, "ready": 1750, "▁own": 1751, "▁end": 1752, "▁terlalu": 1753, "ahaja": 1754, "ழ்": 1755, "uba": 1756, "▁malam": 1757, "▁child": 1758, ".\"": 1759, "▁sahaja": 1760, "▁விவ": 1761, "▁already": 1762, "velop": 1763, "▁att": 1764, "▁என்பது": 1765, "▁கரு": 1766, "ட்ப": 1767, "▁oh": 1768, "▁wr": 1769, "▁sampai": 1770, "已经": 1771, "les": 1772, "▁wang": 1773, "▁op": 1774, "ee": 1775, "▁முக்கிய": 1776, "▁kak": 1777, "emp": 1778, "za": 1779, "▁jen": 1780, "▁ple": 1781, "▁used": 1782, "▁same": 1783, "▁முன்ன": 1784, "ional": 1785, "▁அனை": 1786, "现在": 1787, "▁tiada": 1788, "一种": 1789, "▁கூற": 1790, "▁குறை": 1791, "▁சா": 1792, "ail": 1793, "aja": 1794, "▁form": 1795, "22": 1796, "▁நோ": 1797, "▁lang": 1798, "▁உரு": 1799, "▁acc": 1800, "▁world": 1801, "▁pres": 1802, "ங்களுக்கு": 1803, "▁tanpa": 1804, "▁நிறுவ": 1805, "uit": 1806, "▁develop": 1807, "ikit": 1808, "▁bad": 1809, "olog": 1810, "▁such": 1811, "▁terb": 1812, "ாது": 1813, "▁உள்ளது": 1814, "19": 1815, "▁bagaimana": 1816, "ukar": 1817, "ular": 1818, "uring": 1819, "ouse": 1820, "▁show": 1821, "▁cal": 1822, ",000": 1823, "▁சி": 1824, "▁come": 1825, "ational": 1826, "ைகளை": 1827, "udian": 1828, "30": 1829, "ww": 1830, "பி": 1831, "▁..": 1832, "▁dik": 1833, "▁life": 1834, "▁wak": 1835, "ting": 1836, "fer": 1837, "▁somet": 1838, "ப்படுகிறது": 1839, "▁datang": 1840, "சா": 1841, "ந்திர": 1842, "▁es": 1843, "▁though": 1844, "▁bur": 1845, "▁add": 1846, "▁balik": 1847, "▁mencari": 1848, "antu": 1849, "▁sol": 1850, "▁kemudian": 1851, "uang": 1852, "urang": 1853, "▁வக": 1854, "ital": 1855, "ism": 1856, "ாவது": 1857, "▁fil": 1858, "aik": 1859, "▁pet": 1860, "▁sedang": 1861, "▁red": 1862, "ock": 1863, "▁negara": 1864, "▁bl": 1865, "▁&": 1866, "ne": 1867, "gg": 1868, "ல்லை": 1869, "ரே": 1870, "▁eng": 1871, "分析": 1872, "▁pat": 1873, "▁char": 1874, "▁ass": 1875, "▁வை": 1876, "ics": 1877, "▁hidup": 1878, "ியின்": 1879, "ாவின்": 1880, "▁contr": 1881, "▁benar": 1882, "ied": 1883, "▁>": 1884, "▁உத": 1885, "oney": 1886, "ility": 1887, "alas": 1888, "——": 1889, "ll": 1890, "▁saja": 1891, "▁peny": 1892, "通过": 1893, "ஷ்": 1894, "inc": 1895, "▁singapore": 1896, "iew": 1897, "▁:": 1898, "▁nam": 1899, "▁ஓ": 1900, "▁sebenarnya": 1901, "▁wa": 1902, "ways": 1903, "aks": 1904, "▁hand": 1905, "▁imp": 1906, "▁sini": 1907, "ிலிருந்து": 1908, "中的": 1909, "▁ce": 1910, "▁menye": 1911, "▁li": 1912, "ambar": 1913, "▁meth": 1914, "ather": 1915, "▁வள": 1916, "enti": 1917, "▁must": 1918, "▁dem": 1919, "▁தெ": 1920, "▁salah": 1921, "ject": 1922, "akit": 1923, "iran": 1924, "ாம்": 1925, "ui": 1926, "▁pap": 1927, "▁kl": 1928, "ific": 1929, "▁batu": 1930, "▁ang": 1931, "▁while": 1932, "▁மன": 1933, "▁intern": 1934, "▁他": 1935, "வர்கள்": 1936, "▁mus": 1937, "ta": 1938, "ளும்": 1939, "ha": 1940, "▁pay": 1941, "ves": 1942, "▁exper": 1943, "ool": 1944, "கர": 1945, "▁old": 1946, "▁ant": 1947, "▁art": 1948, "atch": 1949, "aca": 1950, "一些": 1951, "▁find": 1952, "ப்படுத்த": 1953, "▁sal": 1954, "▁uni": 1955, "ever": 1956, "▁asal": 1957, "▁help": 1958, "ித்து": 1959, "str": 1960, "not": 1961, "▁selama": 1962, "usan": 1963, "uhan": 1964, "▁chin": 1965, "ampak": 1966, "ருக்கு": 1967, "这些": 1968, "ர்ந்த": 1969, "ெரிக்க": 1970, "▁மாநில": 1971, "▁bay": 1972, "▁15": 1973, "pi": 1974, "▁melakukan": 1975, "ities": 1976, "▁கண": 1977, "▁def": 1978, "▁method": 1979, "oup": 1980, "▁bod": 1981, "akhir": 1982, "▁不": 1983, "时间": 1984, "als": 1985, "▁please": 1986, "ems": 1987, "▁நிறுவன": 1988, "▁akhir": 1989, "ihatan": 1990, "elah": 1991, "teri": 1992, "▁hal": 1993, "ங்கே": 1994, "▁perkara": 1995, "知道": 1996, "vern": 1997, "▁cor": 1998, "▁never": 1999, "uah": 2000, "uma": 2001, "▁always": 2002, "▁resp": 2003, "▁pend": 2004, "▁mahu": 2005, "▁நேர": 2006, "ட்சி": 2007, "▁அடி": 2008, "க்கான": 2009, "▁ayah": 2010, "▁kek": 2011, "ukup": 2012, "rect": 2013, "▁result": 2014, "▁berd": 2015, "imb": 2016, "▁money": 2017, "▁through": 2018, "▁pasti": 2019, "ப்பட்டது": 2020, "ினார்": 2021, "世界": 2022, "ய்": 2023, "▁தா": 2024, "▁prop": 2025, "மர்": 2026, "▁அவர்கள்": 2027, "arikat": 2028, "▁rest": 2029, "லில்": 2030, "▁probl": 2031, "▁spec": 2032, "▁அமெரிக்க": 2033, "no": 2034, "▁பிற": 2035, "▁mend": 2036, "▁made": 2037, "▁அழ": 2038, "aham": 2039, "ேச": 2040, "jalan": 2041, "▁உலக": 2042, "你的": 2043, "▁read": 2044, "▁மோ": 2045, "ாவில்": 2046, "▁குழ": 2047, "டிவ": 2048, "▁family": 2049, "mm": 2050, "▁கால": 2051, "வாக": 2052, "ime": 2053, "▁ஈ": 2054, "ள்ளார்": 2055, "提供": 2056, "▁kata": 2057, "▁month": 2058, "bar": 2059, "br": 2060, "bat": 2061, "▁better": 2062, "▁point": 2063, "▁agak": 2064, "▁aut": 2065, "▁உறு": 2066, "▁தம": 2067, "▁ris": 2068, "▁அனு": 2069, "பா": 2070, "▁tinggi": 2071, "▁raya": 2072, "unj": 2073, "▁home": 2074, "ினை": 2075, "▁[": 2076, "影响": 2077, "\"\"": 2078, "▁syarikat": 2079, "▁如果": 2080, "utnya": 2081, "以及": 2082, "▁best": 2083, "▁govern": 2084, "▁nampak": 2085, "▁situ": 2086, "lass": 2087, "▁coun": 2088, "▁week": 2089, "mas": 2090, "enting": 2091, "றைய": 2092, "发展": 2093, "ர்ச்ச": 2094, "win": 2095, "anding": 2096, "வீ": 2097, "ubl": 2098, "▁chinese": 2099, "ently": 2100, "▁sej": 2101, "其他": 2102, "▁mc": 2103, "▁buy": 2104, "▁sign": 2105, "▁காண": 2106, "atur": 2107, "▁திர": 2108, "▁rep": 2109, "▁hor": 2110, "▁pul": 2111, "▁தொடர்ப": 2112, "▁sese": 2113, "▁dri": 2114, "alth": 2115, "▁ramai": 2116, "▁suami": 2117, "utan": 2118, "▁house": 2119, "my": 2120, "▁um": 2121, "发表": 2122, "▁okay": 2123, "▁மரு": 2124, "▁சட்ட": 2125, "▁play": 2126, "▁seseorang": 2127, "ative": 2128, "aa": 2129, "▁ret": 2130, "க்கொ": 2131, "经济": 2132, "▁செயல்ப": 2133, "▁selalu": 2134, "▁pu": 2135, "▁18": 2136, "வது": 2137, "▁perm": 2138, "▁singapura": 2139, "lud": 2140, "▁awak": 2141, "▁உண": 2142, "ியா": 2143, "ited": 2144, "ங்": 2145, "ிறார்": 2146, "▁cent": 2147, "▁memper": 2148, "▁going": 2149, "结果": 2150, "国家": 2151, "ling": 2152, "்ச்ச": 2153, "技术": 2154, "▁gener": 2155, "▁lalu": 2156, "னா": 2157, "lukan": 2158, "▁pertama": 2159, "▁dip": 2160, "ிக்கும்": 2161, "மும்": 2162, "▁maj": 2163, "திப்ப": 2164, "▁ev": 2165, "▁tele": 2166, "▁ரூ": 2167, "gian": 2168, "ember": 2169, "▁பாது": 2170, "▁mener": 2171, "▁30": 2172, "▁ta": 2173, "▁cap": 2174, "▁num": 2175, "▁மொ": 2176, "▁memberikan": 2177, "政府": 2178, "baik": 2179, "ிறேன்": 2180, "▁sw": 2181, "ward": 2182, "தல்": 2183, "▁keh": 2184, "▁பகுத": 2185, "▁lepas": 2186, "▁gambar": 2187, "▁give": 2188, "12": 2189, "▁mudah": 2190, "▁cour": 2191, "▁balas": 2192, "▁pan": 2193, "▁ஆகும்": 2194, "ட்க": 2195, "iness": 2196, "▁during": 2197, "ty": 2198, "ible": 2199, "ried": 2200, "கம்": 2201, "▁q": 2202, "▁சந்த": 2203, "设计": 2204, "▁அமைச்ச": 2205, "▁1.": 2206, "thing": 2207, "▁tinggal": 2208, "ர்களுக்கு": 2209, "▁மூலம்": 2210, "ர்த்த": 2211, "▁tech": 2212, "▁cle": 2213, "▁பாதுகா": 2214, "▁since": 2215, "▁sia": 2216, "▁bud": 2217, "▁dekat": 2218, "▁serv": 2219, "▁biasa": 2220, "▁berp": 2221, "▁கொண்டு": 2222, "▁water": 2223, "▁ur": 2224, "▁இல்லை": 2225, "ivid": 2226, "▁lar": 2227, "▁keluarga": 2228, "▁ty": 2229, "▁cakap": 2230, "▁dep": 2231, "▁அரசு": 2232, "ப்பட்டுள்ளது": 2233, "oo": 2234, "▁big": 2235, "▁hot": 2236, "ுதிய": 2237, "▁வெளிய": 2238, "主要": 2239, "▁ஆர": 2240, "▁waktu": 2241, "▁bekerja": 2242, "ath": 2243, "▁government": 2244, "ியல்": 2245, "▁different": 2246, "ej": 2247, "▁மத்திய": 2248, "▁open": 2249, "▁சீ": 2250, "▁அறிவ": 2251, "ிகளை": 2252, "wh": 2253, "▁பொது": 2254, "▁mengapa": 2255, "▁ரா": 2256, "▁14": 2257, "▁loc": 2258, "▁face": 2259, "▁sus": 2260, "▁fol": 2261, "▁won": 2262, "▁sekolah": 2263, "▁test": 2264, "▁call": 2265, "▁amer": 2266, "▁belum": 2267, "babkan": 2268, "▁ment": 2269, "▁ஆண்ட": 2270, "ire": 2271, "▁bag": 2272, "200": 2273, "▁prof": 2274, "▁next": 2275, "yat": 2276, "பு": 2277, "anti": 2278, "▁top": 2279, "时候": 2280, "▁law": 2281, "最后": 2282, "▁paling": 2283, "▁sekali": 2284, "iau": 2285, "▁ketika": 2286, "▁anal": 2287, "▁belajar": 2288, "▁kecil": 2289, "▁கிர": 2290, "▁buk": 2291, "▁mes": 2292, "▁இருந்து": 2293, "▁ed": 2294, "ிடம்": 2295, "ider": 2296, "ாலும்": 2297, "ுக்": 2298, "uman": 2299, "▁care": 2300, "的一": 2301, "▁kep": 2302, "▁lot": 2303, "ts": 2304, "▁விள": 2305, "ni": 2306, "▁semasa": 2307, "不同": 2308, "▁school": 2309, "▁far": 2310, "ுகளை": 2311, "▁pagi": 2312, "▁bersama": 2313, "▁product": 2314, "uduk": 2315, "ren": 2316, "▁prot": 2317, "▁fun": 2318, "self": 2319, "▁pilih": 2320, "这样": 2321, "▁fikir": 2322, "bor": 2323, "▁didn": 2324, "▁போன்ற": 2325, "ister": 2326, "▁model": 2327, "air": 2328, "▁conc": 2329, "hh": 2330, "▁cannot": 2331, "ள்க": 2332, "▁bank": 2333, "▁val": 2334, "▁பூ": 2335, "ர்ந்து": 2336, "▁cas": 2337, "所有": 2338, "▁வாழ": 2339, "▁தமிழ": 2340, "▁எந்த": 2341, "cept": 2342, "press": 2343, "isi": 2344, "ween": 2345, "por": 2346, "▁individ": 2347, "yak": 2348, "▁beliau": 2349, "▁மக": 2350, "▁around": 2351, "▁mal": 2352, "应用": 2353, "▁发表": 2354, "jaya": 2355, "ரவ": 2356, "▁sepat": 2357, "▁sun": 2358, "▁happ": 2359, "▁between": 2360, "ிப்ப": 2361, "▁using": 2362, "osp": 2363, "▁memer": 2364, "▁16": 2365, "te": 2366, "▁于": 2367, "11": 2368, "ness": 2369, "antar": 2370, "▁மாற்ற": 2371, "ient": 2372, "▁கிட": 2373, "部分": 2374, "▁ka": 2375, "its": 2376, "▁ful": 2377, "▁terakhir": 2378, "▁cond": 2379, "▁luar": 2380, "ective": 2381, "▁mengatakan": 2382, "所以": 2383, "▁pop": 2384, "▁disc": 2385, "ner": 2386, "த்தி": 2387, "▁பயன்படுத்த": 2388, "▁da": 2389, "ாதார": 2390, "▁av": 2391, "▁bang": 2392, "▁dulu": 2393, "▁jum": 2394, "▁real": 2395, "▁sesi": 2396, "重要": 2397, "▁gun": 2398, "▁power": 2399, "்க்க": 2400, "ிறோம்": 2401, "我的": 2402, "▁plan": 2403, "uck": 2404, "▁bolehkah": 2405, "还是": 2406, "▁adv": 2407, "很多": 2408, "tain": 2409, "▁cut": 2410, "benar": 2411, "த்திர": 2412, "▁கொள்ள": 2413, "▁depan": 2414, "su": 2415, "▁sepatutnya": 2416, "line": 2417, "வற்ற": 2418, "▁few": 2419, "▁fact": 2420, "开始": 2421, "usia": 2422, "▁pula": 2423, "2.": 2424, "▁spe": 2425, "▁web": 2426, "▁mula": 2427, "▁amb": 2428, "empuan": 2429, "▁progr": 2430, "▁ஆத": 2431, "ern": 2432, "▁அதை": 2433, "▁nas": 2434, "ர்த": 2435, "▁terh": 2436, "▁சூ": 2437, "他的": 2438, "▁yes": 2439, "▁baw": 2440, "iba": 2441, "▁adik": 2442, "▁有": 2443, "▁covid": 2444, "க்கம்": 2445, "ices": 2446, "▁however": 2447, "▁univers": 2448, "go": 2449, "▁கீ": 2450, "▁ye": 2451, "▁மிகவும்": 2452, "ர்களை": 2453, "▁உண்": 2454, "▁without": 2455, "大的": 2456, "க்கூ": 2457, "▁பிரதமர்": 2458, "ple": 2459, "the": 2460, "▁both": 2461, "▁mengen": 2462, "▁includ": 2463, "▁hard": 2464, "▁உருவா": 2465, "▁company": 2466, "ave": 2467, "uatu": 2468, "▁sana": 2469, "ையான": 2470, "▁perempuan": 2471, "▁things": 2472, "▁kh": 2473, "▁புதிய": 2474, "▁publ": 2475, "ason": 2476, "றுக": 2477, "的是": 2478, "▁someone": 2479, "▁இல": 2480, "கவ": 2481, "▁kar": 2482, "ds": 2483, "▁market": 2484, "uss": 2485, "▁தய": 2486, "ோர்": 2487, "▁pass": 2488, "▁என்பதை": 2489, "▁bertanya": 2490, "ேய": 2491, "aian": 2492, "▁job": 2493, "▁காரண": 2494, "▁இரண்டு": 2495, "▁இணை": 2496, "atkan": 2497, "திய": 2498, "ake": 2499, "ms": 2500, "人的": 2501, "▁curr": 2502, "▁requ": 2503, "eck": 2504, "▁joh": 2505, "▁kedua": 2506, "▁pekerja": 2507, "▁fl": 2508, "▁tol": 2509, "▁che": 2510, "▁dise": 2511, "▁diper": 2512, "▁நடை": 2513, "▁mul": 2514, "▁vis": 2515, "க்கி": 2516, "ug": 2517, "esa": 2518, "ani": 2519, "வன": 2520, "▁terk": 2521, "▁paper": 2522, "▁wom": 2523, "ரிச": 2524, "应该": 2525, "▁polit": 2526, "▁sebuah": 2527, "▁naik": 2528, "ior": 2529, "ahu": 2530, "▁உட": 2531, "▁yo": 2532, "▁தோ": 2533, "▁appl": 2534, "beza": 2535, "▁போல": 2536, "▁design": 2537, "▁import": 2538, "hingga": 2539, "▁lak": 2540, "ராக": 2541, "ூர்": 2542, "▁underst": 2543, "▁மின்": 2544, "▁/": 2545, "▁mr": 2546, "▁sl": 2547, ":4": 2548, "▁2.": 2549, "▁இப்போது": 2550, "▁13": 2551, "▁food": 2552, "▁data": 2553, "▁sedikit": 2554, "ulis": 2555, "▁great": 2556, "▁found": 2557, "▁makanan": 2558, "▁pur": 2559, "▁அடிப்பட": 2560, "▁sum": 2561, "▁process": 2562, "▁$": 2563, "tern": 2564, "▁another": 2565, "▁stat": 2566, "▁cukup": 2567, "▁small": 2568, "▁bab": 2569, "ident": 2570, "ajaan": 2571, "ju": 2572, "▁control": 2573, "▁love": 2574, "சார": 2575, "unggu": 2576, "▁kot": 2577, "▁பற்றி": 2578, "cc": 2579, "மன்ற": 2580, "பெ": 2581, "▁அப்ப": 2582, "1.": 2583, "ாட்டு": 2584, "▁berada": 2585, "▁sehingga": 2586, "▁我们": 2587, "▁wanita": 2588, "▁berapa": 2589, "▁cara": 2590, "▁hahaha": 2591, "15": 2592, "▁cuba": 2593, "▁மாத": 2594, "▁jenis": 2595, "也是": 2596, "▁econ": 2597, "▁follow": 2598, "ubah": 2599, "▁direct": 2600, "▁பெற்ற": 2601, "▁vide": 2602, "edi": 2603, "ர்களின்": 2604, "ப்பட்டுள்ள": 2605, "▁dunia": 2606, "▁ஒன்ற": 2607, "ilan": 2608, "fon": 2609, "ையின்": 2610, "▁kerajaan": 2611, "好的": 2612, "ோக": 2613, "ins": 2614, "▁mendapatkan": 2615, "▁beli": 2616, "▁tra": 2617, "▁support": 2618, "▁econom": 2619, "mp": 2620, "டும்": 2621, "▁ge": 2622, "目的": 2623, "▁mean": 2624, "abis": 2625, "ukkan": 2626, "▁mata": 2627, "ric": 2628, "服务": 2629, "▁நிக": 2630, "▁siapa": 2631, "▁pand": 2632, "▁free": 2633, "不是": 2634, "▁வரை": 2635, "认为": 2636, "▁பின்னர்": 2637, "▁நெ": 2638, "▁namun": 2639, "▁lead": 2640, "land": 2641, "▁inform": 2642, "▁berc": 2643, "ork": 2644, "விர": 2645, "▁நிலை": 2646, "▁திற": 2647, "ters": 2648, "▁count": 2649, "ures": 2650, "ினர்": 2651, "to": 2652, "▁மாவ": 2653, "lami": 2654, "▁et": 2655, "▁கல": 2656, "acc": 2657, "ங்கி": 2658, "ries": 2659, "▁tai": 2660, "தும்": 2661, "▁health": 2662, "▁mother": 2663, "▁bre": 2664, "具有": 2665, "▁வந்த": 2666, "▁class": 2667, "ience": 2668, "▁கை": 2669, "▁det": 2670, "▁area": 2671, "▁actually": 2672, "ரிக்க": 2673, "▁rak": 2674, "▁kind": 2675, "数据": 2676, "▁giv": 2677, "▁three": 2678, "▁run": 2679, "ham": 2680, "ten": 2681, "ex": 2682, "▁kedai": 2683, "▁100": 2684, "mu": 2685, "▁incre": 2686, "不会": 2687, "▁cre": 2688, "▁thank": 2689, "▁கட்டு": 2690, "▁dar": 2691, "inggu": 2692, "▁group": 2693, "▁cina": 2694, "▁sesiapa": 2695, "ட்டி": 2696, "▁17": 2697, "▁ik": 2698, "控制": 2699, "▁அதிகார": 2700, "都是": 2701, "▁–": 2702, "▁hub": 2703, "▁talk": 2704, "▁until": 2705, "ரின்": 2706, "出了": 2707, "▁duit": 2708, "▁எண்ண": 2709, "▁belie": 2710, "lay": 2711, "மையான": 2712, "▁indust": 2713, "வேறு": 2714, "ology": 2715, "到了": 2716, "anggap": 2717, "▁membantu": 2718, "▁kenapa": 2719, "க்கள்": 2720, "apun": 2721, "▁something": 2722, "▁berg": 2723, "▁try": 2724, "▁become": 2725, "iel": 2726, "▁id": 2727, "▁ide": 2728, "▁each": 2729, "ுள்ள": 2730, "▁stand": 2731, "▁sib": 2732, "try": 2733, "▁maaf": 2734, "▁second": 2735, "▁semula": 2736, "▁pus": 2737, "▁consider": 2738, "▁elect": 2739, "▁எப்ப": 2740, "方面": 2741, "▁மாண": 2742, "▁ji": 2743, "▁tiba": 2744, "▁kemb": 2745, "ication": 2746, "▁setelah": 2747, "▁study": 2748, "▁கூட்ட": 2749, "ena": 2750, "▁quite": 2751, "eh": 2752, "ned": 2753, "▁சத": 2754, "ality": 2755, "uru": 2756, "ny": 2757, "▁மருத்துவ": 2758, "ென": 2759, "▁cerita": 2760, "ukul": 2761, "வடிக்க": 2762, "▁keep": 2763, "ood": 2764, "▁gre": 2765, "ced": 2766, "▁mur": 2767, "包括": 2768, "▁மாவட்ட": 2769, "▁oper": 2770, "iliki": 2771, "▁எடுத்து": 2772, "▁interest": 2773, "ef": 2774, "adap": 2775, "ungi": 2776, "itahu": 2777, "发现": 2778, "▁report": 2779, "upa": 2780, "▁zh": 2781, "less": 2782, "▁ஆய": 2783, "▁நடவடிக்க": 2784, "▁net": 2785, "ைப்": 2786, "▁தூ": 2787, "திப": 2788, "esan": 2789, "▁bat": 2790, "pak": 2791, "▁maybe": 2792, "▁berlak": 2793, "sung": 2794, "▁வெளி": 2795, "itan": 2796, "▁jo": 2797, "▁walau": 2798, "▁kelihatan": 2799, "▁business": 2800, "▁kr": 2801, "▁sure": 2802, "▁但": 2803, "▁prom": 2804, "▁eas": 2805, "ency": 2806, "ces": 2807, "▁kawasan": 2808, "▁place": 2809, "▁prov": 2810, "▁http": 2811, "osed": 2812, "▁rakan": 2813, "▁cho": 2814, "்ப்பு": 2815, "上的": 2816, "~~": 2817, "ght": 2818, "tor": 2819, "▁01": 2820, "ாடு": 2821, "▁liv": 2822, "ளையும்": 2823, "▁video": 2824, "▁தொழில": 2825, "மீ": 2826, "akin": 2827, "60": 2828, "irl": 2829, "▁awal": 2830, ":5": 2831, "....": 2832, "▁cant": 2833, "ased": 2834, "▁order": 2835, "▁everyone": 2836, ":3": 2837, "guna": 2838, "uskan": 2839, "ையாக": 2840, "▁menerima": 2841, "inal": 2842, "awab": 2843, "▁antara": 2844, "ிறார்கள்": 2845, "ர்வு": 2846, "不能": 2847, "▁kos": 2848, "▁watch": 2849, "▁children": 2850, "▁takut": 2851, "ku": 2852, "▁penting": 2853, "▁problem": 2854, "ingkat": 2855, "னி": 2856, "作用": 2857, "sp": 2858, "anapun": 2859, "▁meh": 2860, "▁mot": 2861, "ize": 2862, "ii": 2863, "比较": 2864, "போ": 2865, "▁days": 2866, "▁country": 2867, "ிகளில்": 2868, "▁当": 2869, "▁சக": 2870, "erg": 2871, "engar": 2872, "ix": 2873, "▁அண": 2874, "book": 2875, "作为": 2876, "▁tell": 2877, "▁memberi": 2878, "▁முய": 2879, "lish": 2880, "▁selamat": 2881, "▁doesn": 2882, "kn": 2883, "▁effect": 2884, "▁faham": 2885, "▁percaya": 2886, "▁pilihan": 2887, "ில்லை": 2888, "▁அதன்": 2889, "▁ten": 2890, "ator": 2891, "ines": 2892, "okong": 2893, "201": 2894, "ற்கான": 2895, "▁bagaimanapun": 2896, "ிற்": 2897, "ர்ம": 2898, "▁mengalami": 2899, "▁kurang": 2900, "antan": 2901, "▁today": 2902, "lum": 2903, "▁young": 2904, "ின்றனர்": 2905, "▁தர": 2906, "aliz": 2907, "▁aff": 2908, "▁wait": 2909, "▁mor": 2910, "▁techn": 2911, "80": 2912, "▁tamb": 2913, "-3": 2914, "▁level": 2915, "▁மேற்க": 2916, "▁number": 2917, "▁contin": 2918, "லிய": 2919, "生活": 2920, "▁இந்தியா": 2921, "ittle": 2922, "▁மதிப்ப": 2923, "▁harus": 2924, "▁once": 2925, "▁+": 2926, "▁தொழில்": 2927, "lebih": 2928, "▁low": 2929, "▁bun": 2930, "▁அரசிய": 2931, "▁25": 2932, "▁ste": 2933, "▁sab": 2934, "▁er": 2935, "那些": 2936, "▁hosp": 2937, "auh": 2938, "alaman": 2939, "▁development": 2940, "▁berlaku": 2941, ":2": 2942, "▁change": 2943, "▁ref": 2944, "▁cepat": 2945, "▁nama": 2946, "sy": 2947, "▁thing": 2948, "ayar": 2949, "▁cari": 2950, "管理": 2951, "▁friends": 2952, "市场": 2953, "ature": 2954, "ikut": 2955, "这种": 2956, "▁kadang": 2957, "aut": 2958, "▁24": 2959, "▁pin": 2960, "▁அனைத்து": 2961, "▁tidur": 2962, "99": 2963, "▁lear": 2964, "▁ger": 2965, "▁less": 2966, "▁இருப்ப": 2967, "ately": 2968, "▁selain": 2969, "ற்றிய": 2970, "asanya": 2971, "▁மக்கள்": 2972, "▁hope": 2973, "tif": 2974, "apkan": 2975, "▁rece": 2976, "▁kira": 2977, "ically": 2978, "成为": 2979, "▁முடியும்": 2980, "▁நகர": 2981, "▁வில": 2982, "har": 2983, "dul": 2984, "▁rend": 2985, "ன்க": 2986, "▁இருக்கிறது": 2987, "▁perh": 2988, "ரில்": 2989, "▁50": 2990, "关系": 2991, "▁city": 2992, "▁times": 2993, "而且": 2994, "ிஸ்த": 2995, "或者": 2996, "▁dist": 2997, "然后": 2998, "▁தேசிய": 2999, "▁lim": 3000, "▁வார": 3001, "▁对": 3002, "'.": 3003, "ji": 3004, "▁mil": 3005, "过程": 3006, "结构": 3007, "▁தயார": 3008, "▁beh": 3009, "▁டெ": 3010, "▁gaj": 3011, "那么": 3012, "▁program": 3013, "▁?": 3014, "ected": 3015, "▁tau": 3016, "aring": 3017, "希望": 3018, "inat": 3019, "▁வேலை": 3020, "▁cost": 3021, "▁akhirnya": 3022, "ety": 3023, "▁little": 3024, "earch": 3025, "gal": 3026, "▁telefon": 3027, "▁dok": 3028, "还有": 3029, "▁bor": 3030, "▁tanya": 3031, "ொள்ள": 3032, "情况": 3033, "▁night": 3034, "▁தகவ": 3035, "▁head": 3036, "ங்களின்": 3037, "▁barang": 3038, "▁vari": 3039, "产品": 3040, "▁jauh": 3041, "▁ராஜ": 3042, "非常": 3043, "▁girl": 3044, "▁குழந்த": 3045, "▁தேவ": 3046, "ழை": 3047, "▁rakyat": 3048, "▁sesuatu": 3049, "yam": 3050, "தா": 3051, "வெ": 3052, "view": 3053, "ping": 3054, "்ட்": 3055, "▁hospital": 3056, "▁pad": 3057, "▁memerlukan": 3058, "▁வேண்ட": 3059, "ron": 3060, "▁எல்ல": 3061, "red": 3062, "unan": 3063, "▁dim": 3064, "▁sar": 3065, "edia": 3066, "发生": 3067, "▁based": 3068, "▁stay": 3069, "▁check": 3070, "看到": 3071, "▁அரசா": 3072, "▁alam": 3073, "▁மட்டு": 3074, "▁terbaik": 3075, "ங்களு": 3076, "band": 3077, "▁enough": 3078, "▁—": 3079, "▁public": 3080, "▁away": 3081, "▁might": 3082, "▁tolong": 3083, "ற்காக": 3084, "ோடு": 3085, "▁”": 3086, "gak": 3087, "ாளர்": 3088, "▁kal": 3089, "மி": 3090, "18": 3091, "第一": 3092, "ிருப்ப": 3093, "任何": 3094, "▁super": 3095, "社会": 3096, "▁research": 3097, "cial": 3098, "▁bla": 3099, "▁kong": 3100, "来的": 3101, "▁hit": 3102, "ution": 3103, "ீர்கள்": 3104, "▁jin": 3105, "ral": 3106, "▁bahasa": 3107, "▁டி": 3108, "jang": 3109, "ones": 3110, "முறை": 3111, "新的": 3112, "ared": 3113, "▁pendapat": 3114, "▁went": 3115, "றிய": 3116, "▁memiliki": 3117, "只是": 3118, "for": 3119, "ிலான": 3120, "▁ingat": 3121, "ாறு": 3122, "ction": 3123, "ikal": 3124, "angor": 3125, "▁prev": 3126, "▁parents": 3127, "ahwin": 3128, "▁tengok": 3129, "ூக": 3130, "upakan": 3131, "同时": 3132, "朋友": 3133, "▁உங்கள்": 3134, "如何": 3135, "▁kej": 3136, "▁list": 3137, "ளாக": 3138, "了一": 3139, "▁செய்வ": 3140, "▁sakit": 3141, "▁bro": 3142, "▁tri": 3143, "介绍": 3144, "விய": 3145, "▁一": 3146, "pm": 3147, "▁உள்ளன": 3148, "▁dil": 3149, "▁orig": 3150, "▁non": 3151, "▁நாங்கள்": 3152, "-4": 3153, "采用": 3154, "▁hing": 3155, "▁bilik": 3156, "▁அரசாங்க": 3157, "க்குக": 3158, "bb": 3159, "▁tengah": 3160, "▁past": 3161, "ulation": 3162, "alkan": 3163, "自己的": 3164, "▁bawah": 3165, "▁கி": 3166, "▁phot": 3167, "adaan": 3168, "▁wah": 3169, "▁eat": 3170, "▁இன்ன": 3171, "▁meet": 3172, "▁sg": 3173, "ருக": 3174, "支持": 3175, "ோச": 3176, "▁போது": 3177, "count": 3178, "▁vacc": 3179, "▁கண்ட": 3180, "▁செய்து": 3181, "▁norm": 3182, "cle": 3183, "▁equ": 3184, "▁pukul": 3185, "▁case": 3186, "ash": 3187, "▁wal": 3188, "▁heart": 3189, "这一": 3190, "▁எவ்வ": 3191, "xx": 3192, "jing": 3193, "▁moh": 3194, "▁book": 3195, "தான்": 3196, "▁happy": 3197, "▁treat": 3198, "▁poss": 3199, "▁nanti": 3200, "存在": 3201, "▁மெ": 3202, "▁அல": 3203, "umb": 3204, "ாமல்": 3205, "▁பல்": 3206, "▁johor": 3207, "▁சம்ப": 3208, "▁berkata": 3209, "▁stop": 3210, "▁kembali": 3211, "▁lol": 3212, "▁hy": 3213, "▁extr": 3214, "▁ters": 3215, "ிக்கை": 3216, "14": 3217, "ale": 3218, "▁tert": 3219, "必须": 3220, "itar": 3221, "▁இல்ல": 3222, "ode": 3223, "awan": 3224, "▁நிகழ": 3225, "▁本文": 3226, "▁price": 3227, "▁வச": 3228, "▁turun": 3229, "▁hingga": 3230, "选择": 3231, "jaga": 3232, "க்காக": 3233, "▁understand": 3234, "▁kuat": 3235, "ர்களு": 3236, "生产": 3237, "▁mari": 3238, "▁என்றும்": 3239, "安全": 3240, "hip": 3241, "andu": 3242, "一样": 3243, "hy": 3244, "▁opt": 3245, "▁important": 3246, "▁full": 3247, "▁நம்ப": 3248, "▁menang": 3249, "lahan": 3250, "处理": 3251, "▁manag": 3252, "idd": 3253, "onton": 3254, "----": 3255, "▁gl": 3256, "▁sou": 3257, "ream": 3258, "▁bir": 3259, "agian": 3260, "▁வருகிறது": 3261, "▁இங்கே": 3262, "ரம்": 3263, "▁benda": 3264, "▁முயற்": 3265, "dr": 3266, "ium": 3267, "illah": 3268, "▁பாத": 3269, "ote": 3270, "▁வாய": 3271, "▁ஒவ்வ": 3272, "▁perform": 3273, "ants": 3274, "antung": 3275, "ists": 3276, "ilang": 3277, "3.": 3278, ":0": 3279, "▁நம": 3280, "▁பர": 3281, "组织": 3282, "▁குறிப்பிட்ட": 3283, "▁vir": 3284, "▁கல்": 3285, "▁தான்": 3286, "▁bit": 3287, "masuk": 3288, "விட": 3289, "▁share": 3290, "▁ver": 3291, "ிக்கப்பட்ட": 3292, "imp": 3293, "▁ko": 3294, "▁pi": 3295, "▁பொருள": 3296, "yu": 3297, "lalui": 3298, "▁est": 3299, "▁duduk": 3300, "▁berbeza": 3301, "▁பெரிய": 3302, "▁selangor": 3303, "▁nor": 3304, "▁bermain": 3305, "▁live": 3306, "▁left": 3307, "த்திற்க": 3308, "sc": 3309, "▁பட்ட": 3310, "▁pot": 3311, "▁exc": 3312, "16": 3313, "▁und": 3314, "yi": 3315, "▁bak": 3316, "▁hi": 3317, "因此": 3318, "▁gaji": 3319, "▁saf": 3320, "▁விரும்ப": 3321, "▁band": 3322, "▁terhadap": 3323, "டுகள்": 3324, "▁விஷ": 3325, "▁information": 3326, "ser": 3327, "▁நாட்ட": 3328, "▁keadaan": 3329, "▁berhar": 3330, "adis": 3331, "▁但是": 3332, "▁tangan": 3333, "▁bis": 3334, "▁terj": 3335, "它们": 3336, "unjukkan": 3337, "▁results": 3338, "▁kini": 3339, "ஸ்ட்": 3340, "▁mom": 3341, "▁hus": 3342, "▁course": 3343, "▁working": 3344, "能够": 3345, "oke": 3346, "▁commun": 3347, "▁mamp": 3348, "ired": 3349, "▁பாதுகாப்பு": 3350, "0.": 3351, "மையில்": 3352, "▁ஷ": 3353, "res": 3354, "ange": 3355, "ering": 3356, "▁parti": 3357, "▁others": 3358, "利用": 3359, "▁maklum": 3360, "ao": 3361, "▁quest": 3362, "▁rendah": 3363, "的时候": 3364, "▁melalui": 3365, "▁sebarang": 3366, "▁light": 3367, "▁tiga": 3368, "信息": 3369, "geri": 3370, "▁இதை": 3371, "ப்பை": 3372, "▁later": 3373, "ையா": 3374, ":“": 3375, "▁mengg": 3376, "▁kamp": 3377, "目前": 3378, "▁bahagian": 3379, "aku": 3380, "oll": 3381, "ஸ்ப": 3382, "▁sent": 3383, "。”": 3384, "ection": 3385, "▁intr": 3386, "▁appro": 3387, "▁state": 3388, "ead": 3389, "25": 3390, "▁teruk": 3391, "ணம்": 3392, "uanya": 3393, "▁சமூக": 3394, "ினால்": 3395, "▁berj": 3396, "urn": 3397, "▁பெய": 3398, "ass": 3399, "▁digunakan": 3400, "ழுத்த": 3401, "-5": 3402, "的话": 3403, "eluar": 3404, "சாய": 3405, "▁hai": 3406, "!!!": 3407, "வரும்": 3408, "▁எனக்கு": 3409, "▁terl": 3410, "ised": 3411, "▁lat": 3412, "▁grow": 3413, "▁hap": 3414, "▁yet": 3415, "▁சொல்ல": 3416, "要求": 3417, "ield": 3418, "▁செல்ல": 3419, "▁menghantar": 3420, "▁அரச": 3421, "▁நடைபெ": 3422, "▁தமிழ்": 3423, "▁hotel": 3424, "▁org": 3425, "lim": 3426, "▁ep": 3427, "ention": 3428, "asaan": 3429, "▁cantik": 3430, "▁发表于": 3431, "illion": 3432, "▁against": 3433, "▁minggu": 3434, "io": 3435, "▁3.": 3436, "றும்": 3437, "21": 3438, "喜欢": 3439, "imes": 3440, "▁near": 3441, "வதற்கு": 3442, "▁dir": 3443, "cr": 3444, "表示": 3445, "முக": 3446, "▁abang": 3447, "▁thought": 3448, "-2011": 3449, "▁menarik": 3450, "ahun": 3451, "▁sukar": 3452, "▁impro": 3453, "ye": 3454, "▁accord": 3455, "▁team": 3456, "idm": 3457, "▁என்பத": 3458, "aksin": 3459, "▁organ": 3460, "企业": 3461, "▁termasuk": 3462, "ணுவ": 3463, "▁allow": 3464, "人们": 3465, "▁god": 3466, "▁hamp": 3467, "ுக்கு": 3468, "▁ve": 3469, "engk": 3470, "▁charac": 3471, "▁தற்ப": 3472, "美元": 3473, "▁முழு": 3474, "டித்த": 3475, "▁இதில்": 3476, "编辑": 3477, "letak": 3478, "ாளர்கள்": 3479, "▁*": 3480, "▁தெரிவித்த": 3481, "▁பல்வேறு": 3482, "▁build": 3483, "ought": 3484, "表明": 3485, "ந்தது": 3486, "▁tom": 3487, "▁service": 3488, "▁தனது": 3489, "வரை": 3490, "▁road": 3491, "ிருக்கும்": 3492, "▁குட": 3493, "▁目的": 3494, "▁korang": 3495, "▁sud": 3496, "▁says": 3497, "两个": 3498, "▁room": 3499, "▁இரா": 3500, "进行了": 3501, "13": 3502, "▁的": 3503, "▁ஜன": 3504, "▁negeri": 3505, "▁மேம்ப": 3506, "▁means": 3507, "▁admin": 3508, "▁media": 3509, "-19": 3510, "▁உற்ப": 3511, "ள்ளனர்": 3512, "▁நிய": 3513, "70": 3514, "▁முதல": 3515, ".'": 3516, "utup": 3517, "ploy": 3518, "iter": 3519, "▁maka": 3520, "ban": 3521, "▁dgn": 3522, "atian": 3523, "▁விஷய": 3524, "isah": 3525, "▁mcm": 3526, "தம்": 3527, "▁கட்ச": 3528, "▁இன்": 3529, "▁win": 3530, "ீடு": 3531, "uction": 3532, "地区": 3533, "ew": 3534, "大学": 3535, "kad": 3536, "ially": 3537, "ribut": 3538, "▁americ": 3539, "▁வேறு": 3540, "eg": 3541, "ogr": 3542, "of": 3543, "▁diedit": 3544, "▁meminta": 3545, "提高": 3546, "▁imm": 3547, "ழி": 3548, "是一": 3549, "▁ambil": 3550, "孩子": 3551, "▁அரசியல்": 3552, "▁mind": 3553, "▁பிரச்ச": 3554, "-6": 3555, "▁வய": 3556, "work": 3557, "டக": 3558, "குதி": 3559, "性的": 3560, "ustom": 3561, "▁called": 3562, "ஜ்": 3563, "yn": 3564, "计算": 3565, "row": 3566, "▁மனித": 3567, "▁believe": 3568, "▁மீது": 3569, "▁discuss": 3570, "ருக்க": 3571, "ழுவ": 3572, "模型": 3573, "ars": 3574, "▁தி": 3575, "▁பொறு": 3576, "ியது": 3577, "jak": 3578, "anggung": 3579, "▁பார்க்க": 3580, "▁மீண்டும்": 3581, "சை": 3582, "▁tetap": 3583, "▁shop": 3584, "▁happen": 3585, "▁செல": 3586, "▁tua": 3587, "▁nya": 3588, "许多": 3589, "▁enj": 3590, "ihan": 3591, "▁din": 3592, "▁குறித்து": 3593, "▁கூட": 3594, "ெக": 3595, "▁having": 3596, "engah": 3597, "uce": 3598, "▁ஒவ்வொரு": 3599, "ழுது": 3600, "ements": 3601, "hamdul": 3602, "▁internet": 3603, "▁dih": 3604, "▁miss": 3605, "地方": 3606, "▁individu": 3607, "▁anti": 3608, "றையில்": 3609, "▁முன்": 3610, "▁pati": 3611, "▁memilih": 3612, "▁புக": 3613, "www": 3614, "▁complet": 3615, "cul": 3616, "▁fa": 3617, "▁mengenai": 3618, "▁kon": 3619, "▁நம்": 3620, "▁தன்": 3621, "▁கோடி": 3622, "是一个": 3623, ")。": 3624, "ibat": 3625, "▁menyebabkan": 3626, "▁card": 3627, "▁hour": 3628, "▁பேச": 3629, "▁least": 3630, "▁examp": 3631, "angsa": 3632, "▁berjaya": 3633, "ாள்": 3634, "iaga": 3635, "▁ஆம்": 3636, "▁அக": 3637, "▁husband": 3638, "▁diffic": 3639, "▁dij": 3640, "ments": 3641, "▁isteri": 3642, "90": 3643, "ats": 3644, "▁mampu": 3645, "▁ஒப்ப": 3646, "▁那": 3647, "ages": 3648, "▁seems": 3649, "▁வளர்ச்ச": 3650, "环境": 3651, "ஃப": 3652, "▁காட்ட": 3653, "ether": 3654, "ுத்த": 3655, "▁போட்ட": 3656, "▁obj": 3657, "▁land": 3658, "ியும்": 3659, "▁hampir": 3660, "为了": 3661, "▁nampaknya": 3662, "▁nk": 3663, "▁meningkat": 3664, "治疗": 3665, "▁பொருளாதார": 3666, "ஸ்க": 3667, "▁wind": 3668, "实现": 3669, "▁getting": 3670, "▁kore": 3671, "▁bagus": 3672, "▁sor": 3673, "▁lu": 3674, "之间": 3675, "▁short": 3676, "▁கடந்த": 3677, "▁social": 3678, "▁lay": 3679, "ffic": 3680, "ped": 3681, "olo": 3682, "40": 3683, "▁suc": 3684, "icle": 3685, "▁press": 3686, "▁alhamdul": 3687, "▁bos": 3688, "▁train": 3689, "▁\"\"": 3690, "▁தொடங்க": 3691, "▁ஒன்று": 3692, "▁hong": 3693, "▁everything": 3694, "uai": 3695, "▁huj": 3696, "▁ek": 3697, "▁offic": 3698, "hidm": 3699, "▁தேர்த": 3700, "▁அவர": 3701, "▁அறி": 3702, "全球": 3703, "ision": 3704, "▁கொள்க": 3705, "▁‘": 3706, "▁sayang": 3707, "▁tel": 3708, "▁self": 3709, "17": 3710, "▁strong": 3711, "sw": 3712, "ateg": 3713, "▁தெரிவித்து": 3714, "ml": 3715, "▁national": 3716, "▁swe": 3717, "▁sil": 3718, "▁doing": 3719, "▁countries": 3720, "▁fre": 3721, "▁ஏன": 3722, "▁habis": 3723, "▁toget": 3724, "ப்படு": 3725, "▁22": 3726, "▁பாக": 3727, "功能": 3728, "▁jelas": 3729, "▁together": 3730, "▁eh": 3731, "只有": 3732, "ihak": 3733, "一直": 3734, "▁mahal": 3735, "正在": 3736, "▁meas": 3737, "▁saw": 3738, "que": 3739, "ination": 3740, "▁maklumat": 3741, "ாகும்": 3742, "▁21": 3743, "மார்": 3744, "rm": 3745, "zz": 3746, "▁cuma": 3747, "由于": 3748, "cri": 3749, "▁மறு": 3750, "ingk": 3751, "▁தொடர்ந்து": 3752, "▁sle": 3753, "细胞": 3754, "▁according": 3755, "▁harap": 3756, "▁sat": 3757, "த்துக்கு": 3758, "▁membawa": 3759, "▁இரண்ட": 3760, "▁alm": 3761, "anyakan": 3762, "▁பரி": 3763, "▁father": 3764, "▁ஆண்டு": 3765, "▁merupakan": 3766, "anjang": 3767, "ொண்ட": 3768, "ுட்ப": 3769, "基础": 3770, "▁perak": 3771, "▁major": 3772, "ளவு": 3773, "oid": 3774, "▁biasanya": 3775, "得到": 3776, "▁வடிவ": 3777, "mi": 3778, "▁teach": 3779, "lab": 3780, "lakang": 3781, "்து": 3782, "方式": 3783, "增加": 3784, "jalanan": 3785, "▁type": 3786, "▁anyone": 3787, "▁kampung": 3788, "▁குடும்ப": 3789, "▁reason": 3790, "▁manusia": 3791, "▁பழ": 3792, "起来": 3793, "ாச": 3794, "வ்": 3795, "fa": 3796, "▁ho": 3797, "▁உங்களுக்கு": 3798, "▁கார": 3799, "建立": 3800, "ongsi": 3801, "▁semakin": 3802, "oses": 3803, "-2012": 3804, "能力": 3805, "umpulan": 3806, "▁name": 3807, "ா்": 3808, "ுகிறது": 3809, "▁குற்ற": 3810, "ணைய": 3811, "னம்": 3812, "▁eur": 3813, "他们的": 3814, "▁jaw": 3815, "ply": 3816, "ets": 3817, "iksa": 3818, "▁perjalanan": 3819, "▁fut": 3820, "apai": 3821, "ரீ": 3822, "东西": 3823, "▁custom": 3824, "ல்கள்": 3825, "▁jugak": 3826, "▁menjual": 3827, "▁வல": 3828, "之前": 3829, "▁apakah": 3830, "▁是": 3831, "போது": 3832, "ove": 3833, "▁bodoh": 3834, "▁நினை": 3835, "▁murah": 3836, "▁lik": 3837, "நிலை": 3838, "▁senti": 3839, "-2009": 3840, "urs": 3841, "▁temp": 3842, "真的": 3843, "▁berf": 3844, "▁body": 3845, "▁bapa": 3846, "▁hubungan": 3847, "▁சதவீ": 3848, "த்தையும்": 3849, "▁months": 3850, "▁cases": 3851, "▁கீழ்": 3852, "ியான": 3853, "▁கவன": 3854, "有效": 3855, "▁provid": 3856, "pec": 3857, "▁often": 3858, "▁peri": 3859, "▁dahulu": 3860, "ession": 3861, "▁wrong": 3862, "▁account": 3863, "▁ahli": 3864, "▁trad": 3865, "▁educ": 3866, "-7": 3867, "100": 3868, "ெட்": 3869, "▁இருந்தது": 3870, "by": 3871, "国际": 3872, "▁pengh": 3873, "▁உயிர": 3874, "▁told": 3875, "mar": 3876, "▁posit": 3877, "▁women": 3878, "觉得": 3879, "ahah": 3880, "▁normal": 3881, "ைகளில்": 3882, "▁sentiasa": 3883, "zh": 3884, "▁done": 3885, "▁mesti": 3886, "atic": 3887, "▁விட": 3888, "▁break": 3889, "▁story": 3890, "▁asked": 3891, "88": 3892, "▁penang": 3893, "▁மைய": 3894, "pg": 3895, "▁ஸ்": 3896, "▁invest": 3897, "▁நீதி": 3898, "▁kul": 3899, "ிருக்கிறது": 3900, "▁belakang": 3901, "政治": 3902, "▁pulak": 3903, "▁side": 3904, "程序": 3905, "▁pract": 3906, "▁introd": 3907, "ன்றால்": 3908, "▁difficult": 3909, "▁அமைப்ப": 3910, "vir": 3911, "ுடைய": 3912, "▁编辑": 3913, "ahami": 3914, "inan": 3915, "▁able": 3916, "▁human": 3917, "▁alhamdulillah": 3918, "▁அவை": 3919, "▁buruk": 3920, "▁edit": 3921, "▁fac": 3922, "▁நான": 3923, "▁原": 3924, "▁bring": 3925, "▁due": 3926, "anggil": 3927, "年的": 3928, "▁pihak": 3929, "▁separ": 3930, "entuk": 3931, "▁போலீ": 3932, "▁view": 3933, "ingan": 3934, "▁விடு": 3935, "▁making": 3936, "▁நடத்த": 3937, "▁petang": 3938, "谢谢": 3939, "▁muda": 3940, "face": 3941, "一定": 3942, "用于": 3943, "wat": 3944, "之一": 3945, "▁hon": 3946, "▁sejak": 3947, "▁original": 3948, "▁pulang": 3949, "uhnya": 3950, "▁மூன்று": 3951, "uced": 3952, "ensive": 3953, "最后由": 3954, "▁saat": 3955, "▁clear": 3956, "▁வித": 3957, "▁harapan": 3958, "▁menunjukkan": 3959, "▁本帖": 3960, "获得": 3961, "▁本帖最后由": 3962, "me": 3963, "▁sometimes": 3964, "anak": 3965, "▁ra": 3966, "”。": 3967, "ungg": 3968, "▁sn": 3969, "▁peluang": 3970, "வர்கள": 3971, "▁expl": 3972, "ences": 3973, "▁mess": 3974, "▁beaut": 3975, "▁09": 3976, "网络": 3977, "war": 3978, "ப்பா": 3979, "5.": 3980, "▁fore": 3981, "▁taiwan": 3982, "一起": 3983, "ized": 3984, "▁penuh": 3985, "计划": 3986, "▁பள்ள": 3987, "▁pain": 3988, "教育": 3989, "▁party": 3990, "▁mach": 3991, "▁wife": 3992, "uju": 3993, "。。。。": 3994, "▁meninggal": 3995, "▁marah": 3996, "▁mendengar": 3997, "isan": 3998, "▁மின்ன": 3999, "ute": 4000, "▁hist": 4001, "▁perasaan": 4002, "是在": 4003, "▁div": 4004, "▁turn": 4005, "▁line": 4006, "ologi": 4007, "laim": 4008, "理论": 4009, "▁present": 4010, "▁activ": 4011, "டா": 4012, "ilai": 4013, "▁mater": 4014, "▁தலைவர்": 4015, "▁partic": 4016, "omb": 4017, "你们": 4018, "▁berl": 4019, "▁கிடை": 4020, "den": 4021, "▁இதன்": 4022, "活动": 4023, "▁வரும்": 4024, "投资": 4025, "▁முடிவ": 4026, "▁four": 4027, "产生": 4028, "并且": 4029, "▁remember": 4030, "▁sep": 4031, "▁kaki": 4032, "▁enter": 4033, "▁nom": 4034, "出现": 4035, "▁port": 4036, "▁tax": 4037, "▁mis": 4038, "\".": 4039, "▁true": 4040, "▁சர்": 4041, "▁experience": 4042, "▁kuala": 4043, "▁விவசாய": 4044, "',": 4045, "文化": 4046, "解决": 4047, "▁tar": 4048, "▁memas": 4049, "学生": 4050, "▁dig": 4051, "▁anything": 4052, "▁langsung": 4053, "▁மட்டுமே": 4054, "▁relations": 4055, "▁முறை": 4056, "▁project": 4057, "▁குடிய": 4058, "▁mov": 4059, "▁isn": 4060, "▁pengguna": 4061, "▁பற்றிய": 4062, "▁utama": 4063, "படி": 4064, "usi": 4065, "▁cam": 4066, "cer": 4067, "▁standard": 4068, "▁பேர்": 4069, "laj": 4070, "sue": 4071, "▁example": 4072, "▁lihat": 4073, "ீட்ட": 4074, "▁whether": 4075, "ucing": 4076, "2,": 4077, "ிகளின்": 4078, "ibadi": 4079, "lood": 4080, "anda": 4081, "▁dibuat": 4082, "▁diber": 4083, "▁phone": 4084, "ined": 4085, "▁நிலைய": 4086, "ட்சம்": 4087, "▁character": 4088, "ton": 4089, "▁rap": 4090, "oga": 4091, "▁நிர்வ": 4092, "更多": 4093, "ிகளுக்கு": 4094, "▁துறை": 4095, "不要": 4096, "▁இன்னும்": 4097, "bt": 4098, "▁இடைய": 4099, "▁நாடுக": 4100, "gala": 4101, "银行": 4102, "iting": 4103, "abat": 4104, "▁online": 4105, "▁சாத": 4106, "hidmatan": 4107, "显示": 4108, "▁produk": 4109, "arak": 4110, "ugh": 4111, "▁அவரது": 4112, "lis": 4113, "ret": 4114, "▁came": 4115, "ze": 4116, "▁nothing": 4117, "annya": 4118, "▁muka": 4119, "▁hold": 4120, "தில்": 4121, "▁dom": 4122, "▁சுற்று": 4123, "之后": 4124, "▁die": 4125, "▁cult": 4126, "kannya": 4127, "▁sekitar": 4128, "▁下": 4129, "▁berhenti": 4130, "个人": 4131, "ையே": 4132, "ili": 4133, "udara": 4134, "▁mati": 4135, "▁looking": 4136, "▁அளவு": 4137, "ரும்ப": 4138, "▁ped": 4139, "▁perkhidmatan": 4140, "▁berminat": 4141, "▁23": 4142, "▁kehidup": 4143, "ீர்": 4144, "cik": 4145, "▁park": 4146, "▁rate": 4147, "lex": 4148, "load": 4149, "▁black": 4150, "▁berkongsi": 4151, "▁தேவை": 4152, "▁பெரு": 4153, "▁menyatakan": 4154, "▁large": 4155, "▁செலு": 4156, "▁jumlah": 4157, "▁flow": 4158, "▁menunggu": 4159, "▁game": 4160, "▁penj": 4161, "▁merasa": 4162, "▁future": 4163, "▁நல்ல": 4164, "ச்சு": 4165, "▁மோடி": 4166, "க்கப்பட்ட": 4167, "▁membayar": 4168, "▁rele": 4169, "▁pengalaman": 4170, "ane": 4171, "▁பெற": 4172, "time": 4173, "8.": 4174, "ிகித": 4175, "▁balasan": 4176, "▁news": 4177, "ப்பி": 4178, "大家": 4179, "▁panjang": 4180, "▁quality": 4181, "▁她": 4182, "▁reply": 4183, "▁sesuai": 4184, "▁நிறை": 4185, "kr": 4186, "▁முட": 4187, "▁bot": 4188, "முற": 4189, "▁gila": 4190, "▁tot": 4191, "探讨": 4192, "▁cat": 4193, "▁ஆகியவற்ற": 4194, "▁students": 4195, "▁appear": 4196, "-10": 4197, "cl": 4198, "▁current": 4199, "▁kehidupan": 4200, "angka": 4201, "ுகளில்": 4202, "政策": 4203, "▁mand": 4204, "其中": 4205, "▁foreign": 4206, "ier": 4207, "▁respons": 4208, "▁sedih": 4209, "atuh": 4210, "▁ip": 4211, "4.": 4212, "变化": 4213, "▁sound": 4214, "amanya": 4215, "த்தக": 4216, "▁camp": 4217, "▁நிர": 4218, "oi": 4219, "”,": 4220, "mer": 4221, "▁menonton": 4222, "pecially": 4223, "▁grad": 4224, "▁semuanya": 4225, "▁sikit": 4226, "▁early": 4227, "▁disebabkan": 4228, "ids": 4229, "日本": 4230, "ானது": 4231, "▁எழ": 4232, "ளா": 4233, "ர்ப்ப": 4234, "▁mencuba": 4235, "▁song": 4236, "▁ago": 4237, "▁sepen": 4238, "▁analys": 4239, "▁kelas": 4240, "相关": 4241, "▁மொத்த": 4242, "men": 4243, "的事": 4244, "itch": 4245, "▁leg": 4246, "▁log": 4247, "开发": 4248, "/0": 4249, "ainan": 4250, "▁விமான": 4251, "யில்": 4252, "edah": 4253, "லைக": 4254, "▁ரூப": 4255, "ங்கிர": 4256, "▁40": 4257, "▁lem": 4258, "ress": 4259, "根据": 4260, "▁menteri": 4261, "▁நிதி": 4262, "தற்கு": 4263, "▁jun": 4264, "-2010": 4265, "▁pelajar": 4266, "த்துடன்": 4267, "வரு": 4268, "ke": 4269, "▁pakai": 4270, "்தான்": 4271, "kadang": 4272, "▁etc": 4273, "▁dengar": 4274, "▁ai": 4275, "▁மர": 4276, "▁pon": 4277, "▁sugg": 4278, "▁refer": 4279, "▁தனி": 4280, "回复": 4281, "▁pray": 4282, "bs": 4283, "ration": 4284, "▁provide": 4285, "▁given": 4286, "antai": 4287, "运动": 4288, "ending": 4289, "▁else": 4290, "hor": 4291, "urut": 4292, "▁berat": 4293, "▁26": 4294, "▁baca": 4295, "▁செய்க": 4296, "▁maks": 4297, "ண்ட்": 4298, "▁வாழ்க்க": 4299, "▁fur": 4300, "▁bergantung": 4301, "ov": 4302, "中心": 4303, "istem": 4304, "基本": 4305, "▁mm": 4306, "▁struct": 4307, "▁கூறினார்": 4308, "▁suggest": 4309, "ains": 4310, "▁அட": 4311, "成功": 4312, "第二": 4313, "▁4.": 4314, "▁bercakap": 4315, "▁material": 4316, "▁குழு": 4317, "▁minta": 4318, "▁seri": 4319, "▁peribadi": 4320, "▁ban": 4321, "▁dou": 4322, "▁tik": 4323, "icy": 4324, "ted": 4325, "ikasi": 4326, "▁tun": 4327, "▁vol": 4328, "▁chi": 4329, "▁lamp": 4330, "ukai": 4331, "**": 4332, "▁அதே": 4333, "▁dam": 4334, "க்கில்": 4335, "திப்பு": 4336, "-8": 4337, "▁priv": 4338, "原因": 4339, "ிட்டு": 4340, "▁especially": 4341, "城市": 4342, "lus": 4343, "action": 4344, "▁minyak": 4345, "▁சேர்ந்த": 4346, "▁mencapai": 4347, "▁cir": 4348, "ujian": 4349, "▁அளி": 4350, "▁காங்கிர": 4351, "▁took": 4352, "▁special": 4353, "side": 4354, "லின்": 4355, "▁idea": 4356, "▁semoga": 4357, "-9": 4358, "▁sabah": 4359, "▁lin": 4360, "▁பார்த்த": 4361, "ோட்ட": 4362, "▁technology": 4363, "▁speak": 4364, "科学": 4365, "▁உரி": 4366, "▁sedap": 4367, "ization": 4368, "▁badan": 4369, "ட்டும்": 4370, "▁tanah": 4371, "的影响": 4372, "对于": 4373, "▁office": 4374, "கை": 4375, "ந்துக": 4376, "▁tv": 4377, "▁hmm": 4378, "▁instead": 4379, "inated": 4380, "▁single": 4381, "▁ஆரம்ப": 4382, "▁இற": 4383, "▁objective": 4384, "itional": 4385, "ோவ": 4386, "▁local": 4387, "主义": 4388, "pos": 4389, "ulang": 4390, "▁amerika": 4391, "▁பிறகு": 4392, "ேயே": 4393, "这里": 4394, "▁kebanyakan": 4395, "▁whole": 4396, "▁ir": 4397, "▁close": 4398, "直接": 4399, "▁pes": 4400, "ori": 4401, "▁kelantan": 4402, "▁japan": 4403, "▁mengikut": 4404, "实验": 4405, "▁permainan": 4406, "▁புரி": 4407, "▁pusat": 4408, "ware": 4409, "மானது": 4410, "▁walk": 4411, "▁நோய": 4412, "▁jumpa": 4413, "ினும்": 4414, "▁started": 4415, "▁ras": 4416, "▁oil": 4417, "%,": 4418, "▁easy": 4419, "▁international": 4420, "我们的": 4421, "ender": 4422, "▁பயிற்": 4423, "▁death": 4424, "▁takde": 4425, "▁almost": 4426, "iously": 4427, "di": 4428, "▁他们": 4429, "▁sistem": 4430, "▁sleep": 4431, "lap": 4432, "▁வைத்த": 4433, "▁situation": 4434, "▁university": 4435, "▁pulau": 4436, "▁south": 4437, "▁pasal": 4438, "▁அனும": 4439, "ape": 4440, "ived": 4441, "uruh": 4442, "▁success": 4443, "▁pekerjaan": 4444, "▁slow": 4445, "一次": 4446, "awat": 4447, "ides": 4448, "▁cy": 4449, "ைப்பட": 4450, "ப்பின": 4451, "▁kumpulan": 4452, "ges": 4453, "▁கொடுக்க": 4454, "▁sell": 4455, "24": 4456, "目标": 4457, "ிகள": 4458, "▁hehe": 4459, "▁terpak": 4460, "ஜி": 4461, "▁fast": 4462, "▁boss": 4463, "fort": 4464, "▁dev": 4465, "jur": 4466, "▁tind": 4467, "▁எப்படி": 4468, "ogle": 4469, ",”": 4470, "▁taking": 4471, "▁occ": 4472, "ming": 4473, "▁accept": 4474, "▁hebat": 4475, "▁而": 4476, "ength": 4477, "▁hu": 4478, "▁kisah": 4479, "ohon": 4480, "▁berjalan": 4481, "▁பெரும்ப": 4482, "awak": 4483, "ேக": 4484, "▁kb": 4485, "▁period": 4486, "▁analy": 4487, "▁perub": 4488, "帮助": 4489, "7.": 4490, "是否": 4491, "நுட்ப": 4492, "ளம்": 4493, "▁bul": 4494, "▁pah": 4495, "iling": 4496, "▁memberitahu": 4497, "▁colle": 4498, "ப்படுத்து": 4499, "▁half": 4500, "▁segala": 4501, "▁mic": 4502, "▁caus": 4503, "▁police": 4504, "ither": 4505, "usnya": 4506, "▁including": 4507, "▁express": 4508, "▁common": 4509, "டுப": 4510, "▁பாட": 4511, "ural": 4512, "ஷன்": 4513, "▁guru": 4514, "▁usually": 4515, "▁budd": 4516, "arch": 4517, "▁melayu": 4518, "▁请": 4519, "நாய": 4520, "▁members": 4521, "மாகும்": 4522, "▁அடுத்த": 4523, "▁sens": 4524, "ilangan": 4525, "ged": 4526, "▁jer": 4527, "▁pint": 4528, "▁vi": 4529, "▁laman": 4530, "▁defin": 4531, "▁வகையில்": 4532, "esti": 4533, "▁lemb": 4534, "▁multi": 4535, "▁punya": 4536, "▁morning": 4537, "▁பங்க": 4538, "viron": 4539, "lable": 4540, "▁minister": 4541, "▁polis": 4542, "▁islam": 4543, "ony": 4544, "dai": 4545, "▁contact": 4546, "▁cover": 4547, "▁memahami": 4548, "ows": 4549, "ுடன்": 4550, "今天": 4551, "▁memak": 4552, "லம்": 4553, "▁இவ்வ": 4554, "▁avai": 4555, "9.": 4556, "▁sever": 4557, "adapi": 4558, "▁saying": 4559, "ongan": 4560, "▁உத்த": 4561, "ird": 4562, "▁popular": 4563, "▁mag": 4564, "▁makes": 4565, "ctor": 4566, "▁del": 4567, "▁நிர்வாக": 4568, "panjang": 4569, ",“": 4570, "▁management": 4571, "uri": 4572, "▁employ": 4573, "▁minum": 4574, "▁mun": 4575, "ther": 4576, "▁விளை": 4577, "▁certain": 4578, "▁தாக்கு": 4579, "▁probab": 4580, "6.": 4581, "ude": 4582, "▁அதற்கு": 4583, "▁இந்தியாவின்": 4584, "▁higher": 4585, "ந்": 4586, "ப்பில்": 4587, "kk": 4588, "gas": 4589, "▁sam": 4590, "▁fail": 4591, "▁gadis": 4592, "▁problems": 4593, "▁signific": 4594, "▁上": 4595, "டித்து": 4596, "▁lakukan": 4597, "▁white": 4598, "aps": 4599, "lek": 4600, "asing": 4601, "▁கடவு": 4602, "▁soft": 4603, "▁issue": 4604, "ியுள்ளது": 4605, "்தி": 4606, "▁cinta": 4607, "▁காய": 4608, "▁ren": 4609, "▁possible": 4610, "▁den": 4611, "▁bant": 4612, "ends": 4613, "gai": 4614, "▁question": 4615, "▁அலுவ": 4616, "etah": 4617, "▁தொழில்நுட்ப": 4618, "基于": 4619, "▁28": 4620, "ished": 4621, "▁tahan": 4622, "▁கிராம": 4623, "baru": 4624, "▁mention": 4625, "▁dianggap": 4626, "▁application": 4627, "▁1,": 4628, "ிக்கிறது": 4629, "效果": 4630, "▁leave": 4631, "▁environ": 4632, "ிச்ச": 4633, "▁facebook": 4634, "▁key": 4635, "▁வைக்க": 4636, "▁glob": 4637, "▁அடிப்படையில்": 4638, "人员": 4639, "▁menukar": 4640, "▁wow": 4641, "▁semb": 4642, "▁சரிய": 4643, "的大": 4644, "▁tahap": 4645, "▁drive": 4646, "甚至": 4647, "onom": 4648, "▁contoh": 4649, "po": 4650, "aph": 4651, "▁நூ": 4652, "▁bukanlah": 4653, "lasan": 4654, "▁individual": 4655, "▁அமைச்சர்": 4656, "னும்": 4657, "▁among": 4658, "▁doktor": 4659, "்ச்சி": 4660, "bum": 4661, "▁filem": 4662, "ாவை": 4663, "fully": 4664, "utkan": 4665, "来说": 4666, "▁financ": 4667, "▁value": 4668, "▁constr": 4669, "elf": 4670, "▁kepala": 4671, "▁ru": 4672, "▁gi": 4673, "23": 4674, "自由": 4675, "▁கண்டு": 4676, "▁stress": 4677, "▁சோ": 4678, "▁melaka": 4679, "▁முன்ப": 4680, "gar": 4681, "▁menge": 4682, "▁sad": 4683, "▁முழுவ": 4684, "kp": 4685, "னிய": 4686, "▁link": 4687, "▁காவ": 4688, "▁lagu": 4689, "ss": 4690, "▁seh": 4691, "▁terut": 4692, "டைந்த": 4693, "▁lap": 4694, "ataan": 4695, "▁mei": 4696, "வான": 4697, "yo": 4698, "完全": 4699, "imbangkan": 4700, "ei": 4701, "மைப்பு": 4702, "▁kap": 4703, "pres": 4704, "வன்": 4705, "med": 4706, "unch": 4707, "▁tuan": 4708, "▁reach": 4709, "fr": 4710, "▁keput": 4711, "▁buku": 4712, "条件": 4713, "▁சிறந்த": 4714, "ேற்ற": 4715, "வாத": 4716, "ப்படுகின்றன": 4717, "ள்ளன": 4718, "▁united": 4719, "▁along": 4720, "phone": 4721, "▁within": 4722, "项目": 4723, "▁குற": 4724, "▁move": 4725, "ush": 4726, "▁bed": 4727, "▁தற்போது": 4728, "▁kakak": 4729, "▁ஆப": 4730, "▁பெண": 4731, "aff": 4732, "மன": 4733, "க்கூடிய": 4734, "▁muat": 4735, "ng": 4736, "▁comput": 4737, "量的": 4738, "▁king": 4739, "▁esok": 4740, "-11": 4741, "ecess": 4742, "ilar": 4743, "▁solat": 4744, "▁talian": 4745, "▁விசார": 4746, "ிரிய": 4747, "gen": 4748, "▁membaca": 4749, "▁tit": 4750, "ும்போது": 4751, "▁该": 4752, "▁ஸ்ட": 4753, "▁மேற்ப": 4754, "英国": 4755, "▁கட்சி": 4756, "ட்டர்": 4757, "ாகவும்": 4758, "▁இயக்க": 4759, "▁supaya": 4760, "▁travel": 4761, "▁berubah": 4762, "▁இராணுவ": 4763, "▁27": 4764, "▁முடியாது": 4765, "son": 4766, "▁fall": 4767, "接受": 4768, "-12": 4769, "ories": 4770, "历史": 4771, "டம்": 4772, "▁age": 4773, "▁join": 4774, "▁ach": 4775, "▁bandar": 4776, "▁available": 4777, "▁engine": 4778, "▁quick": 4779, "▁08": 4780, "▁foc": 4781, "iful": 4782, "▁seen": 4783, "▁199": 4784, "▁sepenuhnya": 4785, "▁sering": 4786, "ங்களும்": 4787, "uta": 4788, "最近": 4789, "▁gold": 4790, "▁north": 4791, "▁korea": 4792, "▁living": 4793, "▁0.": 4794, "▁எடுக்க": 4795, "▁kulit": 4796, "▁nombor": 4797, "gera": 4798, "▁ever": 4799, "▁bek": 4800, "▁sebanyak": 4801, "的问题": 4802, "▁front": 4803, "文件": 4804, "▁பை": 4805, "▁siap": 4806, "▁இறு": 4807, "不过": 4808, "▁kesihatan": 4809, "மெ": 4810, "bagai": 4811, "▁gas": 4812, "▁முக": 4813, "▁அழைக்க": 4814, "ஃப்": 4815, "▁என்றால்": 4816, "1,": 4817, "kira": 4818, "▁learn": 4819, "்கு": 4820, "தான": 4821, "ில்லிய": 4822, "dy": 4823, "▁கல்வி": 4824, "▁அடைய": 4825, "ikm": 4826, "டுப்ப": 4827, "▁sorry": 4828, "500": 4829, "▁tambahan": 4830, "agia": 4831, "▁ri": 4832, "▁unit": 4833, "▁issu": 4834, "▁pret": 4835, "▁dilakukan": 4836, "ended": 4837, "▁keputusan": 4838, "▁patut": 4839, "wards": 4840, "▁தவிர": 4841, "▁hak": 4842, "▁trying": 4843, "illa": 4844, "▁needs": 4845, "▁போரா": 4846, "ergy": 4847, "ிலுள்ள": 4848, "imum": 4849, "▁myself": 4850, "▁சங்க": 4851, "▁நல": 4852, "▁kedah": 4853, "▁clean": 4854, "ume": 4855, "性能": 4856, "▁sho": 4857, "esaikan": 4858, "ube": 4859, "▁தொலை": 4860, "▁environment": 4861, "▁வங்க": 4862, "▁soon": 4863, "▁europe": 4864, "estig": 4865, "▁offer": 4866, "保护": 4867, "▁investig": 4868, "成的": 4869, "告诉": 4870, "▁வெப்ப": 4871, "ிரி": 4872, "▁matter": 4873, "ential": 4874, "▁kun": 4875, "▁நிலையில்": 4876, "ues": 4877, "▁industri": 4878, "▁tam": 4879, "▁methods": 4880, "▁விச": 4881, "▁சிக்க": 4882, "▁itulah": 4883, "▁2022": 4884, "模式": 4885, "行为": 4886, "டியாக": 4887, "▁போக": 4888, "▁segera": 4889, "▁உருவாக்க": 4890, "怎么": 4891, "▁தவ": 4892, "▁event": 4893, "ene": 4894, "▁baju": 4895, "▁step": 4896, "▁hitam": 4897, "▁அவற்ற": 4898, "▁நடிக": 4899, "▁குறிப்பிட": 4900, "lm": 4901, "▁sepanjang": 4902, "学习": 4903, "▁அதிகரி": 4904, "▁அளவ": 4905, "▁ext": 4906, "▁kanak": 4907, "▁education": 4908, "▁secur": 4909, "一下": 4910, "▁shi": 4911, "▁putih": 4912, "▁கூறுக": 4913, "▁probably": 4914, "生物": 4915, "价值": 4916, "▁sour": 4917, "▁கழ": 4918, "▁baby": 4919, "▁pelbagai": 4920, "ந்துள்ளது": 4921, "▁berikan": 4922, "ediakan": 4923, "▁economic": 4924, "த்தைப்": 4925, "tw": 4926, "▁நித": 4927, "hi": 4928, "如此": 4929, "▁star": 4930, "▁சுக": 4931, "▁deter": 4932, "▁பிரிவ": 4933, "alu": 4934, "▁status": 4935, "bi": 4936, "நாடு": 4937, "▁sett": 4938, "欧洲": 4939, "▁terd": 4940, "cm": 4941, "▁யூ": 4942, "▁products": 4943, "ann": 4944, "来自": 4945, "bel": 4946, "வதேச": 4947, "▁hol": 4948, "▁forum": 4949, "ின்றது": 4950, "▁guys": 4951, "aun": 4952, "▁வேண்டிய": 4953, "ancang": 4954, "ுங்கள்": 4955, "▁cause": 4956, "▁大": 4957, "有关": 4958, "▁bern": 4959, "▁anjing": 4960, "▁similar": 4961, "ring": 4962, "நாட்ட": 4963, "决定": 4964, "有一": 4965, "▁这个": 4966, "▁dic": 4967, "▁cik": 4968, "▁india": 4969, "因素": 4970, "ability": 4971, "▁menyer": 4972, "▁செல்": 4973, "用户": 4974, "ots": 4975, "ப்பட்டுள்ளன": 4976, "▁insur": 4977, "也不": 4978, "oto": 4979, "▁article": 4980, "akna": 4981, "这是": 4982, "xy": 4983, "yes": 4984, "sek": 4985, "虽然": 4986, "▁proper": 4987, "selves": 4988, "▁ic": 4989, "▁enjoy": 4990, "▁காங்கிரஸ்": 4991, "▁60": 4992, "▁cell": 4993, "▁ikan": 4994, "▁fund": 4995, "▁deg": 4996, "▁回复": 4997, "▁mengur": 4998, "▁உற்பத்தி": 4999, "导致": 5000, "▁soci": 5001, "▁situasi": 5002, "▁late": 5003, "帖由": 5004, "▁soalan": 5005, "▁jaga": 5006, "oper": 5007, "传统": 5008, "empat": 5009, "▁industry": 5010, "use": 5011, "▁claim": 5012, "标准": 5013, "ising": 5014, "net": 5015, "etail": 5016, "▁impl": 5017, "▁原帖由": 5018, "yle": 5019, "水平": 5020, "▁விரை": 5021, "▁எவ்வாறு": 5022, "ினி": 5023, "▁hours": 5024, "yang": 5025, "▁analysis": 5026, "▁உணவு": 5027, "那里": 5028, "▁states": 5029, "ujuk": 5030, "bas": 5031, "__": 5032, "▁woman": 5033, "▁உண்மையில்": 5034, "த்தும்": 5035, "acy": 5036, "ount": 5037, "▁இவர்": 5038, "▁அதாவது": 5039, "▁comes": 5040, "▁எது": 5041, "▁இந்தியாவில்": 5042, "▁以": 5043, "▁risau": 5044, "???": 5045, "uf": 5046, "lakkan": 5047, "angkap": 5048, "▁focus": 5049, "▁நீதிமன்ற": 5050, "▁துணை": 5051, "▁சர்வதேச": 5052, "▁பயண": 5053, "ified": 5054, "▁bermakna": 5055, "itions": 5056, "通常": 5057, "-2008": 5058, "▁influ": 5059, "实际": 5060, "材料": 5061, "▁perniaga": 5062, "▁கேள்": 5063, "ந்திய": 5064, "embira": 5065, "▁budak": 5066, "gb": 5067, "合作": 5068, "▁cheap": 5069, "▁keper": 5070, "个月": 5071, "▁agama": 5072, "adikan": 5073, "though": 5074, "eluarkan": 5075, "▁tindakan": 5076, "jawab": 5077, "▁இன்று": 5078, "它的": 5079, "▁ub": 5080, "▁வழி": 5081, "▁several": 5082, "特别": 5083, "ைகளின்": 5084, "▁treatment": 5085, "▁maksud": 5086, "▁lam": 5087, "ளுக்கும்": 5088, "arah": 5089, "▁குறைந்த": 5090, "提出": 5091, "▁从": 5092, "ிலேயே": 5093, "asih": 5094, "工程": 5095, "了解": 5096, "▁02": 5097, "ாக்க": 5098, "செய": 5099, "提出了": 5100, "▁tok": 5101, "▁kesan": 5102, "▁tunggu": 5103, "▁nasi": 5104, "▁ஏற்படுத்த": 5105, "▁asia": 5106, "jek": 5107, "aging": 5108, "▁cad": 5109, "ody": 5110, "▁autom": 5111, "▁lupa": 5112, "▁squ": 5113, "▁சென்": 5114, "▁merah": 5115, "▁sah": 5116, "▁கருத்து": 5117, "▁further": 5118, "▁சிக": 5119, "kanak": 5120, "▁increase": 5121, "ota": 5122, "▁dont": 5123, "▁பால": 5124, "▁hilang": 5125, "ipu": 5126, "mana": 5127, "▁nice": 5128, "மையாக": 5129, "可是": 5130, "சார்": 5131, "▁answ": 5132, "▁brother": 5133, "▁lib": 5134, "讨论": 5135, "▁susah": 5136, "▁drink": 5137, "more": 5138, "健康": 5139, "atif": 5140, "反应": 5141, "anggungjawab": 5142, "யம்": 5143, "增长": 5144, "▁அம்": 5145, "kw": 5146, "▁ujian": 5147, "mon": 5148, "▁wonder": 5149, "ரான": 5150, "db": 5151, "▁tentu": 5152, "▁personal": 5153, "ருடைய": 5154, "▁perniagaan": 5155, "▁புது": 5156, "aka": 5157, "▁record": 5158, "தியாக": 5159, "▁berka": 5160, "▁chr": 5161, "டுகிறது": 5162, "那个": 5163, "jpg": 5164, "▁terbang": 5165, "ல்களை": 5166, "▁typ": 5167, "▁அங்கு": 5168, "▁காரணமாக": 5169, "ense": 5170, "▁requir": 5171, "简单": 5172, "over": 5173, "过去": 5174, "த்தால்": 5175, "▁பக": 5176, "▁உறுதி": 5177, "▁ones": 5178, "测试": 5179, "星期": 5180, "ந்தி": 5181, "▁panas": 5182, "▁அப": 5183, "为什么": 5184, "ளுடன்": 5185, "▁utk": 5186, "▁luck": 5187, "▁wanted": 5188, "tg": 5189, "நாயக": 5190, "▁although": 5191, "出来": 5192, "▁sbb": 5193, "▁simple": 5194, "▁எழு": 5195, "▁seem": 5196, "▁percuma": 5197, "▁ayam": 5198, "▁field": 5199, "▁heard": 5200, "▁pict": 5201, "ift": 5202, "▁ஒரே": 5203, "▁risk": 5204, "关于": 5205, "law": 5206, "▁சம்பவ": 5207, "ைகளுக்கு": 5208, "▁boy": 5209, "▁ஆச": 5210, "▁continue": 5211, "▁scre": 5212, "▁)": 5213, "▁conn": 5214, "▁sedar": 5215, "▁visit": 5216, "▁berharap": 5217, "自然": 5218, "度的": 5219, "set": 5220, "▁உட்ப": 5221, "▁kop": 5222, "erb": 5223, "▁dad": 5224, "▁உதவ": 5225, "▁ps": 5226, "▁படி": 5227, "▁cuti": 5228, "▁வீர": 5229, "▁google": 5230, "▁mempert": 5231, "gara": 5232, "▁பெற்று": 5233, "▁vaksin": 5234, "▁现在": 5235, "▁berita": 5236, "irkan": 5237, "istic": 5238, "▁lump": 5239, "▁thread": 5240, "▁benef": 5241, "▁சுவ": 5242, "▁gar": 5243, "▁செய்யப்பட்ட": 5244, "▁plat": 5245, "▁5.": 5246, "建议": 5247, "▁diam": 5248, "▁plus": 5249, "▁berkahwin": 5250, "▁வைத்து": 5251, "▁author": 5252, "▁seek": 5253, "adik": 5254, "设备": 5255, "哈哈": 5256, "ley": 5257, "▁poor": 5258, "▁fel": 5259, "▁waj": 5260, "puter": 5261, "ஷ்ட": 5262, "▁beautiful": 5263, "lin": 5264, "▁simpan": 5265, "▁03": 5266, "ிறீர்கள்": 5267, "▁blu": 5268, "ய்வு": 5269, "▁compet": 5270, "▁இழ": 5271, "arat": 5272, "விட்ட": 5273, "▁ஏற்க": 5274, "த்துறை": 5275, "லுக்கு": 5276, "▁guy": 5277, "▁percent": 5278, "▁president": 5279, "jam": 5280, "ிலோ": 5281, "▁general": 5282, "▁tre": 5283, "▁zaman": 5284, "_(": 5285, "▁english": 5286, "ெல்ல": 5287, "▁பணி": 5288, "▁下载": 5289, "▁expect": 5290, "▁melakukannya": 5291, "லாக": 5292, "▁结果": 5293, "▁05": 5294, "▁jep": 5295, "▁words": 5296, "就会": 5297, "▁blood": 5298, "ption": 5299, "▁其": 5300, "▁திரும்ப": 5301, "容易": 5302, "▁mental": 5303, "esh": 5304, "▁ஆராய": 5305, "▁ialah": 5306, "▁ஏன்": 5307, "▁energy": 5308, "▁முக்கியமான": 5309, "▁இயக்கு": 5310, "不到": 5311, "多少": 5312, "▁இஸ்": 5313, "拥有": 5314, "▁memandu": 5315, "erv": 5316, "ட்கள்": 5317, "▁தெரிய": 5318, "▁universiti": 5319, "மையை": 5320, "▁சார்": 5321, "▁இங்கு": 5322, "ibility": 5323, "▁return": 5324, "elesaikan": 5325, "成了": 5326, "无法": 5327, "▁ng": 5328, "▁achie": 5329, "oud": 5330, "ட்டை": 5331, "试验": 5332, "uch": 5333, "▁diken": 5334, "▁either": 5335, "▁asing": 5336, "ca": 5337, "▁sement": 5338, "▁pasukan": 5339, "方案": 5340, "ological": 5341, "ொழுது": 5342, "▁வெற்றி": 5343, "▁album": 5344, "▁natur": 5345, "▁uk": 5346, "▁wants": 5347, "uli": 5348, "▁சிறு": 5349, "▁space": 5350, "电子": 5351, "▁bentuk": 5352, "内容": 5353, "▁sokong": 5354, "▁drop": 5355, "继续": 5356, "cy": 5357, "▁இந்தப்": 5358, "▁ஆல": 5359, "▁shah": 5360, "த்தக்க": 5361, "▁sos": 5362, "▁berkaitan": 5363, "▁sementara": 5364, "idikan": 5365, "eter": 5366, "iam": 5367, "tak": 5368, "▁significant": 5369, "▁keras": 5370, "▁comb": 5371, "▁longer": 5372, "▁lok": 5373, "▁langua": 5374, "▁above": 5375, "的方法": 5376, "▁invol": 5377, "表现": 5378, "ண்ப": 5379, "oma": 5380, "▁sela": 5381, "▁அமைப்பு": 5382, "ablish": 5383, "wah": 5384, "▁ann": 5385, "▁இவை": 5386, "▁செயல்": 5387, "调查": 5388, "▁confir": 5389, "介绍了": 5390, "▁gam": 5391, "▁ib": 5392, "▁kil": 5393, "ram": 5394, "asar": 5395, "患者": 5396, "iong": 5397, "▁patients": 5398, "ki": 5399, "ங்கும்": 5400, "▁இதனால்": 5401, "45": 5402, "▁global": 5403, "▁shall": 5404, "空间": 5405, "▁samb": 5406, "▁29": 5407, "▁hang": 5408, "▁ஈடுப": 5409, "▁தன்ன": 5410, "▁pac": 5411, "▁million": 5412, "pro": 5413, "▁taman": 5414, "▁finally": 5415, "资源": 5416, "▁il": 5417, "▁cop": 5418, "▁cry": 5419, "▁யெக": 5420, "யா": 5421, "价格": 5422, "kt": 5423, "do": 5424, "▁deep": 5425, "稳定": 5426, "▁உற": 5427, "▁வளர்ச்சி": 5428, "▁தங்கள்": 5429, "▁சென்ற": 5430, "▁tp": 5431, "▁descri": 5432, "▁சுகாதார": 5433, "75": 5434, "▁necess": 5435, "2022": 5436, "usaha": 5437, "▁நப": 5438, "▁seluruh": 5439, "▁சரி": 5440, "改变": 5441, "▁திட்டம்": 5442, "▁kaya": 5443, "▁ஆன": 5444, "▁tarik": 5445, "▁|": 5446, "ties": 5447, "▁நமது": 5448, "▁history": 5449, "33": 5450, "▁fight": 5451, "▁komen": 5452, "▁pintu": 5453, "▁membel": 5454, "▁menghadapi": 5455, "▁அதில்": 5456, "结论": 5457, "▁rich": 5458, "ills": 5459, "▁dh": 5460, "▁posted": 5461, "ழிய": 5462, "的一个": 5463, "▁deli": 5464, "ekatan": 5465, "▁profess": 5466, "▁ரூபாய்": 5467, "ப்பிர": 5468, "▁hart": 5469, "afik": 5470, "த்திலும்": 5471, "▁tas": 5472, "▁தகவல்": 5473, "▁வட": 5474, "▁fish": 5475, "enarkan": 5476, "▁penc": 5477, "▁அளவில்": 5478, "▁கலந்து": 5479, "▁கைது": 5480, "நீ": 5481, "感觉": 5482, "▁kt": 5483, "▁wat": 5484, "▁compan": 5485, "▁terutamanya": 5486, "▁emb": 5487, "orts": 5488, "▁முயற்ச": 5489, "▁menangis": 5490, "ாரா": 5491, "▁apply": 5492, "▁இத்த": 5493, "idak": 5494, "▁04": 5495, "க்கொள்ள": 5496, "▁ல்": 5497, "面的": 5498, "▁hid": 5499, "▁perang": 5500, "▁பதில": 5501, "▁此": 5502, "▁whats": 5503, "▁yourself": 5504, "uu": 5505, "金融": 5506, "▁kahwin": 5507, "▁வகு": 5508, "▁menjalan": 5509, "▁lost": 5510, "lan": 5511, "▁உதவி": 5512, "▁menyebut": 5513, "▁ros": 5514, "▁terletak": 5515, "ோதும்": 5516, "▁தின": 5517, "▁உடன்": 5518, "▁உறுப்பின": 5519, "▁cook": 5520, "▁haven": 5521, "▁முறைய": 5522, "san": 5523, "antikan": 5524, "她的": 5525, "▁க்கு": 5526, "▁married": 5527, "▁பாஜ": 5528, "நோ": 5529, "▁taken": 5530, "els": 5531, "▁jur": 5532, "ெனில்": 5533, "▁berani": 5534, "▁ident": 5535, "aft": 5536, "意义": 5537, "▁தெரிவித்தார்": 5538, "▁looks": 5539, "▁புள்ள": 5540, "▁தீவிர": 5541, "考虑": 5542, "▁pasangan": 5543, "▁amount": 5544, "km": 5545, "▁feeling": 5546, "▁indones": 5547, "▁usaha": 5548, "▁film": 5549, "▁hell": 5550, "▁jatuh": 5551, "▁establish": 5552, "-20": 5553, "eb": 5554, "oleh": 5555, "impan": 5556, "▁என்றார்": 5557, "▁vers": 5558, "▁membuka": 5559, "▁80": 5560, "pu": 5561, "▁bayar": 5562, "▁isu": 5563, "电话": 5564, "▁terpaksa": 5565, "▁--": 5566, "த்தல்": 5567, "han": 5568, "▁முடிவு": 5569, "zy": 5570, "ானிய": 5571, "abar": 5572, "▁jud": 5573, "▁கிற": 5574, "▁stre": 5575, "ria": 5576, "▁political": 5577, "ission": 5578, "anggan": 5579, "▁drama": 5580, "▁semalam": 5581, "26": 5582, "▁karena": 5583, "各种": 5584, "▁sarawak": 5585, "▁security": 5586, "▁mass": 5587, "▁lumpur": 5588, "ைக்கு": 5589, "▁lower": 5590, "ிருந்தது": 5591, "▁通过": 5592, "一步": 5593, "▁ஆதர": 5594, "▁bantuan": 5595, "▁financial": 5596, "bed": 5597, "okok": 5598, "▁மாற": 5599, "的研究": 5600, "ambah": 5601, "ening": 5602, "ihkan": 5603, "▁tempatan": 5604, "uji": 5605, "质量": 5606, "▁கல்ல": 5607, "▁பரிச": 5608, "▁ஆவ": 5609, "多数": 5610, "ians": 5611, "▁pakaian": 5612, "明显": 5613, "ப்போ": 5614, "保持": 5615, "tle": 5616, "▁bri": 5617, "ging": 5618, "▁perhatian": 5619, "▁crit": 5620, "asil": 5621, "▁performance": 5622, "▁behind": 5623, ",\"": 5624, "artment": 5625, "▁tang": 5626, "▁choose": 5627, "▁five": 5628, "▁ill": 5629, "▁nasib": 5630, "▁ikut": 5631, "▁abs": 5632, "▁exam": 5633, "▁menya": 5634, "▁function": 5635, "ental": 5636, "▁செய்யும்": 5637, "▁tadi": 5638, "ison": 5639, "▁அங்க": 5640, "▁structure": 5641, "▁பார்": 5642, "eless": 5643, "▁kew": 5644, "ibu": 5645, "ிற்ப": 5646, "▁bahwa": 5647, "ganya": 5648, "▁worth": 5649, "echan": 5650, "▁அவன்": 5651, "▁guna": 5652, "确定": 5653, "▁asp": 5654, "▁bahan": 5655, "▁collect": 5656, "தே": 5657, "及其": 5658, "ror": 5659, "艺术": 5660, "代表": 5661, "▁economy": 5662, "▁becom": 5663, "▁api": 5664, "▁kuasa": 5665, "மொ": 5666, "▁deal": 5667, "▁விளைய": 5668, "▁这些": 5669, "▁grand": 5670, "的最": 5671, "esen": 5672, "▁approach": 5673, "கார": 5674, "▁virus": 5675, "வோம்": 5676, "▁lan": 5677, "随着": 5678, "ெய்": 5679, "▁relationship": 5680, "▁sister": 5681, "itor": 5682, "▁hasil": 5683, "▁phys": 5684, "▁சேவ": 5685, "▁它": 5686, "va": 5687, "▁pej": 5688, "▁currently": 5689, "▁அழை": 5690, "▁skin": 5691, "ிப்பு": 5692, "尽管": 5693, "க்களை": 5694, "ங்கில": 5695, "▁letak": 5696, "28": 5697, "注意": 5698, "▁sex": 5699, "▁bid": 5700, "▁kota": 5701, "▁umur": 5702, "然而": 5703, "▁versi": 5704, "▁எளி": 5705, "asarkan": 5706, "னே": 5707, "inggit": 5708, "caya": 5709, "uly": 5710, "▁berusia": 5711, "好像": 5712, "லைய": 5713, "▁circ": 5714, "▁outside": 5715, "ayah": 5716, "wal": 5717, "▁எழுத": 5718, "▁பதிவு": 5719, "▁வண": 5720, "▁tempoh": 5721, "▁thinking": 5722, "人民": 5723, "机会": 5724, "▁production": 5725, "▁போக்கு": 5726, "▁fu": 5727, "▁டிர": 5728, "enang": 5729, "▁நிச்ச": 5730, "த்தது": 5731, "osa": 5732, "▁total": 5733, "的新": 5734, "ledge": 5735, "▁empat": 5736, "▁உயர்": 5737, "▁பெறு": 5738, "▁kay": 5739, "year": 5740, "▁avoid": 5741, "atik": 5742, "▁எதிர்க": 5743, "▁07": 5744, "nn": 5745, "ances": 5746, "▁exist": 5747, "▁mob": 5748, "்கா": 5749, "▁son": 5750, "▁arr": 5751, "▁fat": 5752, "friend": 5753, "▁warna": 5754, "ney": 5755, "▁500": 5756, "daft": 5757, "▁சதவீத": 5758, "▁dream": 5759, "ன்மை": 5760, "▁princ": 5761, "ற்கும்": 5762, "汽车": 5763, "ites": 5764, "▁சிகிச்ச": 5765, "▁green": 5766, "▁komputer": 5767, "mb": 5768, "eral": 5769, "▁pesan": 5770, "▁brand": 5771, "27": 5772, "▁menjaga": 5773, "iddle": 5774, "னின்": 5775, "ukur": 5776, "▁மேற்கொள்ள": 5777, "▁para": 5778, "kahwin": 5779, "ungsi": 5780, "▁const": 5781, "▁growth": 5782, "▁penyel": 5783, "▁தலைமை": 5784, "வதை": 5785, "▁ms": 5786, "▁pemer": 5787, "▁abah": 5788, "▁staff": 5789, "▁rather": 5790, "where": 5791, "机构": 5792, "▁தள": 5793, "▁anim": 5794, "awarkan": 5795, "下的": 5796, "▁要": 5797, "▁所以": 5798, "▁recently": 5799, "▁சிறப்பு": 5800, "▁table": 5801, "▁இதற்கு": 5802, "▁pasaran": 5803, "▁resour": 5804, "▁content": 5805, "ர்களில்": 5806, "相信": 5807, "ises": 5808, "த்தைக்": 5809, "▁coming": 5810, "ound": 5811, "ases": 5812, "▁கூடு": 5813, "5%": 5814, "▁issues": 5815, "rup": 5816, "ensi": 5817, "▁gel": 5818, "▁tuj": 5819, "▁பயன்படுத்து": 5820, "ஆம்": 5821, "▁விட்ட": 5822, "cing": 5823, "uhi": 5824, "▁bermula": 5825, "ப்பது": 5826, "▁வரலா": 5827, "dua": 5828, "▁jepun": 5829, "egr": 5830, "▁வரைய": 5831, "ுதல்": 5832, "▁forward": 5833, "▁ப்": 5834, "▁எம்": 5835, "gs": 5836, "▁gembira": 5837, "ht": 5838, "▁மேல்": 5839, "▁bayi": 5840, "▁realiz": 5841, "▁various": 5842, "ருவ": 5843, "减少": 5844, "umpul": 5845, "▁sense": 5846, "தாகவும்": 5847, "eed": 5848, "▁உள்ளிட்ட": 5849, "▁பாகிஸ்த": 5850, "▁aud": 5851, "▁ringgit": 5852, "▁official": 5853, "▁akaun": 5854, "மோ": 5855, "▁முன்னாள்": 5856, "மிட": 5857, "▁tried": 5858, "▁எதிராக": 5859, "▁சுமார்": 5860, "eraan": 5861, "லே": 5862, "ில்லியன்": 5863, "▁நீர்": 5864, "▁whatsapp": 5865, "்டர்": 5866, "▁access": 5867, "tiba": 5868, "abil": 5869, "▁dest": 5870, "▁sebelah": 5871, "▁beras": 5872, "▁menyokong": 5873, "这样的": 5874, "▁considered": 5875, "ument": 5876, "▁நன்ற": 5877, "osi": 5878, "▁berdasarkan": 5879, "umpa": 5880, "▁அளிக்க": 5881, "▁அவர்கள": 5882, "▁அதிகமாக": 5883, "வர்களுக்கு": 5884, "▁policy": 5885, "▁agar": 5886, "▁alone": 5887, "受到": 5888, "▁teh": 5889, "▁perkahwin": 5890, "比如": 5891, "லாள": 5892, "▁companies": 5893, "也有": 5894, "vi": 5895, "த்தா": 5896, "▁bahkan": 5897, "ார்த்த": 5898, "ப்பிய": 5899, "▁membelinya": 5900, "தால்": 5901, "▁mist": 5902, "▁workers": 5903, "▁alasan": 5904, "omm": 5905, "▁hands": 5906, "比赛": 5907, "降低": 5908, "▁eyes": 5909, "oran": 5910, "apak": 5911, "▁rul": 5912, "▁தெள": 5913, "▁cong": 5914, "▁sudden": 5915, "▁seng": 5916, "▁behav": 5917, "back": 5918, "ிகளும்": 5919, "▁இருந்தால்": 5920, "▁அதி": 5921, "小时": 5922, "enal": 5923, "▁music": 5924, "xi": 5925, "▁bisa": 5926, "▁motor": 5927, "▁நிறுவனம்": 5928, "▁hum": 5929, "▁answer": 5930, "▁speed": 5931, "▁06": 5932, "▁memula": 5933, "软件": 5934, "▁மணி": 5935, "▁因为": 5936, "▁rot": 5937, "▁master": 5938, "操作": 5939, "▁awam": 5940, "▁lanj": 5941, "▁politik": 5942, "்களை": 5943, "▁search": 5944, "都有": 5945, "arian": 5946, "▁\"\"\"": 5947, "▁likely": 5948, "▁ஐரோ": 5949, "▁kopi": 5950, "客户": 5951, "▁ஆண்டில்": 5952, "mad": 5953, "▁எதிர்ப": 5954, "▁vict": 5955, "▁specific": 5956, "▁terlibat": 5957, "印度": 5958, "▁சிறிய": 5959, "▁sambil": 5960, "▁minit": 5961, "不同的": 5962, "更加": 5963, "▁webs": 5964, "▁third": 5965, "▁fit": 5966, "▁inside": 5967, "க்கொண்ட": 5968, "▁private": 5969, "ured": 5970, "▁earth": 5971, "▁பேர": 5972, "▁menem": 5973, "制造": 5974, "▁size": 5975, "▁mi": 5976, "▁விரு": 5977, "学校": 5978, "zed": 5979, "▁pandai": 5980, "▁நு": 5981, "வேண்டும்": 5982, "வோ": 5983, "总统": 5984, "▁ds": 5985, "isis": 5986, "▁princip": 5987, "▁kur": 5988, "▁குறித்த": 5989, "▁kab": 5990, "并不": 5991, "▁ஏற்பட்ட": 5992, "▁kit": 5993, "▁culture": 5994, "▁cab": 5995, "▁attack": 5996, "▁explain": 5997, "35": 5998, "ects": 5999, "▁network": 6000, "▁received": 6001, "了一个": 6002, "antaran": 6003, "▁middle": 6004, "▁பகுதி": 6005, "▁arri": 6006, "▁சோத": 6007, "▁lee": 6008, "undang": 6009, "▁text": 6010, "▁kesel": 6011, "▁perkahwinan": 6012, "▁எனது": 6013, "istics": 6014, "▁meningkatkan": 6015, "▁force": 6016, "▁mechan": 6017, "மார": 6018, "▁因此": 6019, "eki": 6020, "▁கிழ": 6021, "▁known": 6022, "▁kenal": 6023, "▁american": 6024, "家庭": 6025, "▁அவர்களுக்கு": 6026, "▁hahah": 6027, "▁ramb": 6028, "▁வந்து": 6029, "adapan": 6030, "▁berfikir": 6031, "▁就": 6032, "லும்": 6033, "ைகள": 6034, "▁kucing": 6035, "力的": 6036, "特点": 6037, "▁ga": 6038, "▁medical": 6039, "▁luc": 6040, "ரக": 6041, "▁இடை": 6042, "▁நேரத்தில்": 6043, "▁fem": 6044, "லைக்க": 6045, "▁instit": 6046, "▁malu": 6047, "▁fak": 6048, "▁villa": 6049, "▁tab": 6050, "▁biar": 6051, "▁prices": 6052, "▁student": 6053, "美國": 6054, "▁bought": 6055, "▁position": 6056, "னுடைய": 6057, "akala": 6058, "நாட்டு": 6059, "▁language": 6060, "网站": 6061, "▁basic": 6062, "怎样": 6063, "语言": 6064, "▁radi": 6065, "体的": 6066, "ோப": 6067, "▁komun": 6068, "▁pelanggan": 6069, "uali": 6070, "领域": 6071, "▁உச்ச": 6072, "▁சிவ": 6073, "ship": 6074, "▁cb": 6075, "▁expensive": 6076, "ided": 6077, "▁epis": 6078, "不可": 6079, "超过": 6080, "▁rain": 6081, "▁mount": 6082, "▁center": 6083, "▁rev": 6084, "▁பல்க": 6085, "▁hur": 6086, "▁கீழ": 6087, "▁கடை": 6088, "▁pakatan": 6089, "itely": 6090, "▁theory": 6091, "严重": 6092, "结合": 6093, "lang": 6094, "uas": 6095, "▁posting": 6096, "யமாக": 6097, "▁perf": 6098, "▁bukit": 6099, "▁கடி": 6100, "ros": 6101, "3,": 6102, "oph": 6103, "▁第": 6104, "dp": 6105, "▁terasa": 6106, "esar": 6107, "▁fav": 6108, "▁fig": 6109, "资料": 6110, "▁building": 6111, "▁begin": 6112, "▁விழ": 6113, "body": 6114, "▁நக": 6115, "▁குடி": 6116, "需求": 6117, "▁skr": 6118, "▁tekn": 6119, "▁பாஜக": 6120, "▁aust": 6121, "ungk": 6122, "ey": 6123, "▁sea": 6124, "wai": 6125, "▁fine": 6126, "pet": 6127, "▁indonesia": 6128, "ங்களையும்": 6129, "▁computer": 6130, "▁penduduk": 6131, "org": 6132, "▁menges": 6133, "▁menulis": 6134, "ocr": 6135, "▁bawa": 6136, "▁buddha": 6137, "重新": 6138, "▁rez": 6139, "▁serta": 6140, "出的": 6141, "▁flo": 6142, "▁prefer": 6143, "▁hujan": 6144, "▁merancang": 6145, "▁முழுவதும்": 6146, "▁பெரும்": 6147, "▁pekan": 6148, "▁compared": 6149, "行的": 6150, "ட்சிய": 6151, "ril": 6152, "▁விப": 6153, "▁fair": 6154, "▁tepat": 6155, "▁strength": 6156, "▁படை": 6157, "报告": 6158, "anja": 6159, "电影": 6160, "▁உடல்": 6161, "进入": 6162, "திபதி": 6163, "經濟": 6164, "▁senang": 6165, "▁prepar": 6166, "imate": 6167, "▁ade": 6168, "▁color": 6169, "▁kadar": 6170, "▁services": 6171, "ரேந்திர": 6172, "kg": 6173, "rs": 6174, "▁sebulan": 6175, "工艺": 6176, "▁பங்கே": 6177, "▁முற": 6178, "ஹ்": 6179, "▁தொழிலாள": 6180, "▁traffic": 6181, "用的": 6182, "▁போராட்ட": 6183, "icken": 6184, "ொண்டு": 6185, "▁imag": 6186, "▁kehilangan": 6187, "▁hair": 6188, "▁az": 6189, "▁விற்ப": 6190, "观察": 6191, "▁nasihat": 6192, "onomi": 6193, "portun": 6194, "▁கொள்": 6195, "▁ஒப்பு": 6196, "த்திலிருந்து": 6197, "▁interested": 6198, "▁pemilik": 6199, "ury": 6200, "▁repres": 6201, "▁thanks": 6202, "▁pressure": 6203, "▁manakala": 6204, "准备": 6205, "▁ham": 6206, "▁mene": 6207, "29": 6208, "▁society": 6209, "▁dyn": 6210, "▁6.": 6211, "etic": 6212, "动物": 6213, "▁sik": 6214, "特征": 6215, "▁prem": 6216, "▁rah": 6217, "先生": 6218, "▁quickly": 6219, "aikan": 6220, "▁சர": 6221, "லர்": 6222, "▁condition": 6223, "▁setahun": 6224, "▁suruh": 6225, "▁max": 6226, "▁bon": 6227, "▁conclus": 6228, "▁...": 6229, "▁shows": 6230, "ify": 6231, "▁நாட்டின்": 6232, "看看": 6233, "▁diorang": 6234, "▁mau": 6235, "的小": 6236, "▁பிரதேச": 6237, "▁kac": 6238, "▁attention": 6239, "▁target": 6240, "▁save": 6241, "现代": 6242, "系列": 6243, "▁create": 6244, "erty": 6245, "▁menyediakan": 6246, "▁berasa": 6247, "▁felt": 6248, "!!!!": 6249, "▁experi": 6250, "▁அடை": 6251, "▁consum": 6252, "國家": 6253, "▁beng": 6254, "kl": 6255, "ட்ர": 6256, "▁pengur": 6257, "我国": 6258, "▁பக்க": 6259, "▁ny": 6260, "▁rom": 6261, "▁liter": 6262, "建筑": 6263, "▁ஒப்பந்த": 6264, "▁heav": 6265, "ப்பான": 6266, "▁எஸ்": 6267, "是一种": 6268, "▁gave": 6269, "▁mencukup": 6270, "▁daily": 6271, "▁வழக்கு": 6272, "ியுள்ள": 6273, "找到": 6274, "▁masak": 6275, "▁ஜனநாயக": 6276, "▁இதுவரை": 6277, "uff": 6278, "light": 6279, "▁recomm": 6280, "照片": 6281, "திக்க": 6282, "5/": 6283, "▁90": 6284, "人类": 6285, "▁நமக்கு": 6286, "▁புல": 6287, "din": 6288, "▁temper": 6289, "ancangan": 6290, "▁drug": 6291, "▁pick": 6292, "▁முறையில்": 6293, "世纪": 6294, "▁opportun": 6295, "▁works": 6296, "▁chop": 6297, "▁mencukupi": 6298, "▁wear": 6299, "தலை": 6300, "ky": 6301, "▁mid": 6302, "专业": 6303, "▁memakai": 6304, "▁upd": 6305, "▁திரைப்பட": 6306, "▁cos": 6307, "▁dasar": 6308, "▁ஃப": 6309, "▁வெளியே": 6310, "ீட்டு": 6311, "▁முடி": 6312, "▁obser": 6313, "▁undang": 6314, "除了": 6315, "entu": 6316, "▁பயிற்சி": 6317, "cs": 6318, "▁விசாரணை": 6319, "▁பார்ப்ப": 6320, "ained": 6321, "▁pandangan": 6322, "5,": 6323, "▁keti": 6324, "ws": 6325, "经验": 6326, "▁degree": 6327, "▁இந்தியாவ": 6328, "化的": 6329, "▁restr": 6330, "一点": 6331, "▁அணி": 6332, "▁adm": 6333, "▁correct": 6334, "▁மதிப்பு": 6335, "acher": 6336, "ding": 6337, "▁berharga": 6338, "努力": 6339, "▁சுத": 6340, "▁moment": 6341, "▁penat": 6342, "cd": 6343, "检测": 6344, "lebr": 6345, "ப்ட": 6346, "▁tiket": 6347, "ications": 6348, "▁following": 6349, "▁damn": 6350, "▁போக்குவர": 6351, "▁themselves": 6352, "收入": 6353, "▁serius": 6354, "come": 6355, "▁memohon": 6356, "▁tuhan": 6357, "▁வகை": 6358, "形式": 6359, "思想": 6360, "▁siao": 6361, "▁menganggap": 6362, "amah": 6363, "room": 6364, "ester": 6365, "▁demand": 6366, "▁நடைபெற்ற": 6367, "▁அடையாள": 6368, "ox": 6369, "்த்து": 6370, "ப்பதற்கு": 6371, "系统的": 6372, "gk": 6373, "▁sis": 6374, "ுகளுக்கு": 6375, "▁regard": 6376, "mail": 6377, "indah": 6378, "▁bunyi": 6379, "▁yeah": 6380, "▁seles": 6381, "▁match": 6382, "▁புற": 6383, "整个": 6384, "itting": 6385, "▁memuat": 6386, "精神": 6387, "wise": 6388, "有的": 6389, "▁action": 6390, "▁அருக": 6391, "将会": 6392, "esej": 6393, "ங்கா": 6394, "▁definitely": 6395, "▁2,": 6396, "ுகளின்": 6397, "down": 6398, "▁east": 6399, "▁improve": 6400, "▁therefore": 6401, "▁sewa": 6402, "▁தமிழ்நாடு": 6403, "针对": 6404, "▁emas": 6405, "自动": 6406, "▁experim": 6407, "工具": 6408, "速度": 6409, "43": 6410, "ும": 6411, "▁hous": 6412, "ிலே": 6413, "里的": 6414, "▁nilai": 6415, "形成": 6416, "verage": 6417, "ns": 6418, "▁ஜே": 6419, "▁ஆற்ற": 6420, "raid": 6421, "▁gunakan": 6422, "ru": 6423, "想要": 6424, "▁raw": 6425, "▁pejabat": 6426, "▁agre": 6427, "▁detail": 6428, "▁pendapatan": 6429, "iko": 6430, "ரசு": 6431, "▁கிறிஸ்த": 6432, "▁spir": 6433, "ince": 6434, "▁tekan": 6435, "▁எல்லா": 6436, "▁weeks": 6437, "▁中国": 6438, "▁continu": 6439, "uruhan": 6440, "▁谢谢": 6441, "▁note": 6442, "▁வெள்ள": 6443, "▁கன": 6444, "▁2020": 6445, "elam": 6446, "த்தான்": 6447, "生命": 6448, "மாறு": 6449, "\",": 6450, "▁ஏனெனில்": 6451, "utes": 6452, "▁70": 6453, "成本": 6454, "▁எதி": 6455, "ங்கிய": 6456, "措施": 6457, "ikat": 6458, "▁அனுப": 6459, "每个": 6460, "▁natural": 6461, "▁talking": 6462, "soci": 6463, "▁நான்கு": 6464, "ப்படவில்லை": 6465, "令人": 6466, "used": 6467, "▁wall": 6468, "领导": 6469, "▁சென்னை": 6470, "▁towards": 6471, "同样": 6472, "luan": 6473, "▁serious": 6474, "▁keseluruhan": 6475, "▁menyert": 6476, "▁distribut": 6477, "▁கட்டுப்ப": 6478, "▁உர": 6479, "关键": 6480, "ென்": 6481, "itive": 6482, "▁surpr": 6483, "▁அவ்வ": 6484, "▁simply": 6485, "alleng": 6486, "游戏": 6487, "风险": 6488, "bers": 6489, "▁கைய": 6490, "▁safe": 6491, "பே": 6492, "oint": 6493, "▁effic": 6494, "完成": 6495, "▁rezeki": 6496, "真正": 6497, "▁sorang": 6498, "anji": 6499, "hai": 6500, "▁தீர்": 6501, "▁diberikan": 6502, "▁capital": 6503, "▁prim": 6504, "▁அவசிய": 6505, "▁pengaj": 6506, "ரல்": 6507, "▁மற்றொரு": 6508, "▁கிடைக்க": 6509, "▁அவருக்கு": 6510, "▁syn": 6511, "▁chance": 6512, "katakan": 6513, "▁points": 6514, "▁lapor": 6515, "就可以": 6516, "▁和": 6517, "▁mmg": 6518, "▁birth": 6519, "▁court": 6520, "▁perb": 6521, "itable": 6522, "▁katakan": 6523, "▁malang": 6524, "▁perat": 6525, "电脑": 6526, "▁கூட்டு": 6527, "▁pemandu": 6528, "▁dijual": 6529, "▁anymore": 6530, "pad": 6531, "▁knowledge": 6532, "▁flu": 6533, "▁pemain": 6534, "▁der": 6535, "▁sold": 6536, "▁became": 6537, "▁விகித": 6538, "ிட்": 6539, "emic": 6540, "▁kids": 6541, "▁kewangan": 6542, "▁அலுவலக": 6543, "rr": 6544, "னுக்கு": 6545, "高的": 6546, "▁shar": 6547, "▁laut": 6548, "▁rice": 6549, "▁ஆய்வ": 6550, "ாக்": 6551, "ார்ப": 6552, "▁afraid": 6553, "▁mesej": 6554, "ங்கை": 6555, "▁extrem": 6556, "▁jan": 6557, "ungkan": 6558, "▁menghar": 6559, "galanya": 6560, "▁clos": 6561, "▁doctor": 6562, "程度": 6563, "▁arg": 6564, "▁ஆகியவை": 6565, "▁fly": 6566, "▁menyelesaikan": 6567, "▁rob": 6568, "者的": 6569, "fit": 6570, "▁wish": 6571, "▁edited": 6572, "ses": 6573, "▁wel": 6574, "anggu": 6575, "▁keperluan": 6576, "▁civ": 6577, "▁இவ": 6578, "itary": 6579, "▁recent": 6580, "▁touch": 6581, "▁challeng": 6582, "▁கணக்க": 6583, "▁hom": 6584, "முடைய": 6585, "ிவிட்ட": 6586, "ery": 6587, "pla": 6588, "கள்": 6589, "▁iphone": 6590, "▁info": 6591, "▁ஏற்று": 6592, "▁series": 6593, "▁concern": 6594, "▁difference": 6595, "89": 6596, "▁jarang": 6597, "联合": 6598, "▁தேர்தல்": 6599, "▁anyway": 6600, "86": 6601, "kini": 6602, "▁ஒது": 6603, "才能": 6604, "▁!": 6605, "ோல்": 6606, "▁foot": 6607, "▁earli": 6608, "▁லட்சம்": 6609, "▁integr": 6610, "▁pinang": 6611, "▁waiting": 6612, "▁ther": 6613, "▁bahagia": 6614, "சே": 6615, "状态": 6616, "மைப்ப": 6617, "▁சொன்ன": 6618, "▁bei": 6619, "▁நேரம்": 6620, "▁selagi": 6621, "▁block": 6622, "umi": 6623, "▁cit": 6624, "▁cross": 6625, "▁effects": 6626, "▁musim": 6627, "rom": 6628, "▁select": 6629, "emu": 6630, "த்தகைய": 6631, "▁langkah": 6632, "vert": 6633, "▁west": 6634, "ன்கள்": 6635, "hati": 6636, "▁pretty": 6637, "▁gaya": 6638, "只要": 6639, "▁opin": 6640, "iden": 6641, "▁playing": 6642, "▁நரேந்திர": 6643, "▁perlahan": 6644, "▁store": 6645, "有些": 6646, "▁sul": 6647, "ualiti": 6648, "▁sibuk": 6649, "forum": 6650, "▁malah": 6651, "த்தின": 6652, "有人": 6653, "rel": 6654, "osis": 6655, "▁dikatakan": 6656, "定的": 6657, "▁role": 6658, "▁km": 6659, "▁guess": 6660, "▁உதாரண": 6661, "▁பொதுவாக": 6662, "▁particular": 6663, "olar": 6664, "▁areas": 6665, "▁date": 6666, "▁separuh": 6667, "ென்றால்": 6668, "▁tersedia": 6669, "வாய": 6670, "▁gol": 6671, "今年": 6672, "▁immedi": 6673, "bit": 6674, "urkan": 6675, "▁teruskan": 6676, "仍然": 6677, "ியுள்ளார்": 6678, "uku": 6679, "hold": 6680, "ண்மை": 6681, "%。": 6682, "dom": 6683, "▁muncul": 6684, "▁தேர்வு": 6685, "不断": 6686, "不知道": 6687, "77": 6688, "▁juta": 6689, "▁malas": 6690, "文章": 6691, "改革": 6692, "类型": 6693, "ிகு": 6694, "▁cukai": 6695, "算法": 6696, "▁masy": 6697, "▁அழுத்த": 6698, "▁ja": 6699, "வதற்கான": 6700, "有限": 6701, "ingat": 6702, "▁stock": 6703, "icate": 6704, "▁modern": 6705, "--------": 6706, "ளுமன்ற": 6707, "▁pakar": 6708, "▁purch": 6709, "▁கலை": 6710, "impin": 6711, "事实": 6712, "▁source": 6713, "▁penulis": 6714, "故事": 6715, "▁kecuali": 6716, "டுகளை": 6717, "▁தொகுத": 6718, "aksud": 6719, "▁saham": 6720, "消息": 6721, "▁sales": 6722, "ece": 6723, "▁டெல்ல": 6724, "▁中": 6725, "▁yuan": 6726, "-2013": 6727, "▁சிங்": 6728, "▁majlis": 6729, "யூ": 6730, "ர்க்": 6731, "iring": 6732, "▁குழுவ": 6733, "▁selesai": 6734, "▁wed": 6735, "anger": 6736, "▁draw": 6737, "▁அவருடைய": 6738, "▁transport": 6739, "orn": 6740, "▁memulakan": 6741, "▁goes": 6742, "▁income": 6743, "ousand": 6744, "▁பங்கு": 6745, "ief": 6746, "▁உள்": 6747, "引起": 6748, "▁நாடு": 6749, "报道": 6750, "▁可以": 6751, "▁teacher": 6752, "enggan": 6753, "色的": 6754, "▁station": 6755, "▁sand": 6756, "ingin": 6757, "▁tour": 6758, "▁结论": 6759, "ipta": 6760, "范围": 6761, "▁image": 6762, "னில்": 6763, "▁code": 6764, "感到": 6765, "另一": 6766, "ikmati": 6767, "▁வர்த்த": 6768, "ification": 6769, "▁willing": 6770, "▁suddenly": 6771, "法律": 6772, "▁box": 6773, "pp": 6774, "ராச": 6775, "▁contract": 6776, "▁interview": 6777, "▁arah": 6778, "▁இடையே": 6779, "▁ekonomi": 6780, "ungguh": 6781, "▁clin": 6782, "音乐": 6783, "▁கல்லூ": 6784, "之间的": 6785, "▁cold": 6786, "baikan": 6787, "65": 6788, "▁தெரிவிக்க": 6789, "onok": 6790, "sama": 6791, "▁path": 6792, "▁honest": 6793, "另外": 6794, "▁சகோத": 6795, "▁அறிமுக": 6796, "ைத்": 6797, "▁conditions": 6798, "▁ruang": 6799, "ோர": 6800, "▁chen": 6801, "▁ஒருவர்": 6802, "▁இரண்டாவது": 6803, "ym": 6804, "yan": 6805, "val": 6806, "▁terp": 6807, "▁berset": 6808, "▁lima": 6809, "▁研究": 6810, "▁சீன": 6811, "ம்பர்": 6812, "▁இளை": 6813, "蛋白": 6814, "நிய": 6815, "▁penyakit": 6816, "达到": 6817, "elas": 6818, "▁agree": 6819, "▁ஊழிய": 6820, "▁ஆய்வு": 6821, "வதாக": 6822, "述了": 6823, "▁spend": 6824, "▁doc": 6825, "▁அரு": 6826, "ங்கிணை": 6827, "▁gem": 6828, "▁ess": 6829, "▁choice": 6830, "▁uncle": 6831, "ilt": 6832, "▁implement": 6833, "▁மூன்ற": 6834, "nak": 6835, "▁terg": 6836, "▁penghantaran": 6837, "▁attr": 6838, "▁வாய்ப்ப": 6839, "▁மேற்பட்ட": 6840, "ecut": 6841, "证明": 6842, "▁trade": 6843, "dd": 6844, "电视": 6845, "▁moder": 6846, "ந்துள்ள": 6847, "▁நோக்க": 6848, "்துறை": 6849, "▁thousand": 6850, "adian": 6851, "▁lock": 6852, "4,": 6853, "▁கேட்ட": 6854, "▁நெருக்க": 6855, "▁பகுதியில்": 6856, "▁teks": 6857, "分享": 6858, "anah": 6859, "▁clu": 6860, "国内": 6861, "erima": 6862, "▁reading": 6863, "iq": 6864, "执行": 6865, "▁வழக்க": 6866, "▁akibat": 6867, "▁bil": 6868, "▁அவரை": 6869, "▁terjadi": 6870, "ored": 6871, "▁gag": 6872, "▁credit": 6873, "▁teman": 6874, "▁ground": 6875, "arakat": 6876, "▁couldn": 6877, "▁cool": 6878, "ெடுக்க": 6879, "▁படம்": 6880, "▁kend": 6881, "lebihan": 6882, "▁beritahu": 6883, "▁கிலோ": 6884, "▁traditional": 6885, "85": 6886, "基因": 6887, "ர்களும்": 6888, "▁meninggalkan": 6889, "ross": 6890, "▁tingkat": 6891, "ொட": 6892, "行动": 6893, "▁associ": 6894, "▁population": 6895, "▁tarikh": 6896, "▁rambut": 6897, "▁chicken": 6898, "▁training": 6899, "▁takes": 6900, "▁பொலி": 6901, "▁term": 6902, "▁sumber": 6903, "▁construction": 6904, "மாற்ற": 6905, "▁ரயில்": 6906, "▁tertentu": 6907, "过程中": 6908, "tf": 6909, "▁pal": 6910, "▁不过": 6911, "▁leav": 6912, "▁சொந்த": 6913, "▁season": 6914, "▁小": 6915, "ளுக்கான": 6916, "至少": 6917, "▁brit": 6918, "▁bayaran": 6919, "▁ஒருங்கிணை": 6920, "▁word": 6921, "kawan": 6922, "▁விரும்புக": 6923, "முறைய": 6924, "-2014": 6925, "持续": 6926, "▁berdekatan": 6927, "yy": 6928, "▁unless": 6929, "▁lanjut": 6930, "子的": 6931, "▁berjumpa": 6932, "建设": 6933, "itter": 6934, "▁lokasi": 6935, "例如": 6936, "▁berbanding": 6937, "▁பத்திர": 6938, "uatan": 6939, "▁suff": 6940, "▁happened": 6941, "▁கொடுத்த": 6942, "ற்றா": 6943, "▁அரசாங்கம்": 6944, "▁photos": 6945, "▁bersetuju": 6946, "▁forget": 6947, "த்தார்": 6948, "▁respon": 6949, "▁masyarakat": 6950, "▁related": 6951, "▁cadangan": 6952, "参加": 6953, "事件": 6954, "rat": 6955, "▁effective": 6956, "▁பீ": 6957, "▁bunga": 6958, "ellow": 6959, "▁menawarkan": 6960, "▁தாக்க": 6961, "▁address": 6962, "ட்டில்": 6963, "▁san": 6964, "▁sekurang": 6965, "▁bangun": 6966, "▁salary": 6967, "▁’": 6968, "▁ஜனா": 6969, "▁mentioned": 6970, "工业": 6971, "▁31": 6972, "▁doll": 6973, "gawai": 6974, "▁pendidikan": 6975, "▁poly": 6976, "▁susp": 6977, "னைய": 6978, "▁தெளிவ": 6979, "▁நீண்ட": 6980, "▁கெ": 6981, "▁மகிழ": 6982, "▁community": 6983, "bon": 6984, "odoh": 6985, "▁review": 6986, "▁பெண்": 6987, "like": 6988, "kh": 6989, "லைக்கழ": 6990, "▁மத": 6991, "gest": 6992, "▁six": 6993, "▁jawatan": 6994, "▁வயது": 6995, "▁file": 6996, "▁nen": 6997, "首先": 6998, "▁நாள்": 6999, "மின்": 7000, "兴趣": 7001, "民主": 7002, "idge": 7003, "just": 7004, "play": 7005, "kurang": 7006, "▁comment": 7007, "▁confession": 7008, "▁easily": 7009, "▁சென்று": 7010, "▁நடந்த": 7011, "▁jenama": 7012, "体系": 7013, "▁mengeluarkan": 7014, "▁cash": 7015, "▁ரீ": 7016, "aster": 7017, "▁earlier": 7018, "▁perbeza": 7019, "▁然而": 7020, "▁இளைஞ": 7021, "▁நிகழ்ச்ச": 7022, "▁photo": 7023, "▁aim": 7024, "ativ": 7025, "nam": 7026, "mod": 7027, "▁最": 7028, "றுத்த": 7029, "知识": 7030, "ப்பாக": 7031, "▁நடவடிக்கை": 7032, "▁ஆர்": 7033, "▁angg": 7034, "▁menurut": 7035, "位于": 7036, "造成": 7037, "▁spread": 7038, "8,": 7039, "▁முதலில்": 7040, "▁street": 7041, "以来": 7042, "▁jah": 7043, "enced": 7044, "▁வாக": 7045, "▁loss": 7046, "▁shang": 7047, "▁surat": 7048, "交易": 7049, "▁bersedia": 7050, "▁menyertai": 7051, "临床": 7052, "▁திரும": 7053, "ols": 7054, "uhkan": 7055, "▁இணைய": 7056, "教学": 7057, "▁ketiga": 7058, "压力": 7059, "也许": 7060, "▁pelab": 7061, "osting": 7062, "stic": 7063, "▁ready": 7064, "▁இருக்கலாம்": 7065, "▁message": 7066, "▁lab": 7067, "ectiv": 7068, "长期": 7069, "▁நிச்சயமாக": 7070, "sat": 7071, "▁xiao": 7072, "▁என்னவெ": 7073, "▁rent": 7074, "▁விலை": 7075, "神经": 7076, "消费": 7077, "▁சப": 7078, "▁door": 7079, "▁தொடர்பு": 7080, "ியே": 7081, "▁equip": 7082, "▁சட்டம்": 7083, "检查": 7084, "▁sejuk": 7085, "ching": 7086, "▁pred": 7087, "66": 7088, "ந்த்": 7089, "ெல்லாம்": 7090, "▁பொருட்க": 7091, "கிறது": 7092, "▁கால்": 7093, "olution": 7094, "-2007": 7095, "▁april": 7096, "▁lz": 7097, "▁austral": 7098, "保存": 7099, "▁town": 7100, "ூட": 7101, "▁strateg": 7102, "எஸ்": 7103, "▁buah": 7104, "▁sebabnya": 7105, "▁bimb": 7106, "▁positive": 7107, "▁blue": 7108, "▁ball": 7109, "▁aktiv": 7110, "eth": 7111, "▁இயற்க": 7112, "ceed": 7113, "▁software": 7114, "▁individuals": 7115, "utang": 7116, "几乎": 7117, "pose": 7118, "▁baiklah": 7119, "▁வருகின்றன": 7120, "▁berusaha": 7121, "▁கடு": 7122, "▁தேர்ந்த": 7123, "▁mad": 7124, "这么": 7125, "马来": 7126, "gerak": 7127, "▁seter": 7128, "ees": 7129, "▁sokongan": 7130, "▁இல்": 7131, "下来": 7132, "哪里": 7133, "▁transfer": 7134, "டுக்கும்": 7135, "▁jour": 7136, "ித்": 7137, "医生": 7138, "▁அவர்களை": 7139, "ியம்": 7140, "▁mut": 7141, "▁mengad": 7142, "றவு": 7143, "▁coup": 7144, "▁புர": 7145, "▁studied": 7146, "னவே": 7147, "▁across": 7148, "kurangnya": 7149, "▁frequ": 7150, "▁version": 7151, "saya": 7152, "▁barat": 7153, "த்துள்ளது": 7154, "alang": 7155, "ாட்டை": 7156, "▁jawapan": 7157, "care": 7158, "olak": 7159, "▁kosong": 7160, "ருக்கும்": 7161, "ாண": 7162, "似乎": 7163, "▁trust": 7164, "不仅": 7165, "▁amp": 7166, "▁laugh": 7167, "amu": 7168, "▁pasar": 7169, "▁7.": 7170, "▁மட்டும்": 7171, "▁kekasih": 7172, "▁property": 7173, "▁techni": 7174, "engganu": 7175, "▁mai": 7176, "▁games": 7177, "▁makin": 7178, "▁central": 7179, "解释": 7180, "▁bola": 7181, "▁running": 7182, "▁proses": 7183, "▁usia": 7184, "▁sosial": 7185, "▁எதிர்ப்பு": 7186, "anan": 7187, "即使": 7188, "ray": 7189, "lash": 7190, "based": 7191, "▁அமைக்க": 7192, "▁leaders": 7193, "北京": 7194, "表达": 7195, "▁வேக": 7196, "▁pahang": 7197, "ugg": 7198, "▁indah": 7199, "▁instr": 7200, "த்திற்கும்": 7201, "一般": 7202, "▁laporan": 7203, "▁fire": 7204, "▁bekas": 7205, "alikan": 7206, "▁perhaps": 7207, "▁semangat": 7208, "以前": 7209, "itted": 7210, "gt": 7211, "意味": 7212, "▁mall": 7213, "ibatkan": 7214, "▁meeting": 7215, "ores": 7216, "都会": 7217, "▁300": 7218, "▁பல்கலைக்கழ": 7219, "位置": 7220, "ahaya": 7221, "%.": 7222, "▁knows": 7223, "▁menjadikan": 7224, "isf": 7225, "▁diperlukan": 7226, "▁saiz": 7227, "沒有": 7228, "▁machine": 7229, "▁我的": 7230, "▁coff": 7231, "每天": 7232, "ken": 7233, "几个": 7234, "运行": 7235, "lektr": 7236, "▁subject": 7237, "atih": 7238, "▁அச": 7239, "▁double": 7240, "▁platform": 7241, "oups": 7242, "▁hear": 7243, "▁lif": 7244, "的地方": 7245, "▁உங்கள": 7246, "allah": 7247, "ராம": 7248, "untungan": 7249, "திகள்": 7250, "istance": 7251, "▁vo": 7252, "▁மோச": 7253, "▁umum": 7254, "▁busy": 7255, "elamatan": 7256, "▁trou": 7257, "▁terlebih": 7258, "hd": 7259, "iksaan": 7260, "▁jujur": 7261, "jaman": 7262, "▁போக்குவரத்து": 7263, "▁military": 7264, "▁பிரப": 7265, "▁kanan": 7266, "▁sungai": 7267, "▁mert": 7268, "▁如果你": 7269, "▁dipl": 7270, "orrow": 7271, "ாட": 7272, "▁angry": 7273, "▁cloth": 7274, "▁addition": 7275, "▁மொழ": 7276, "lawan": 7277, "ன்ஸ்": 7278, "▁சுதந்திர": 7279, "▁xi": 7280, "▁practice": 7281, "▁style": 7282, "alays": 7283, "▁include": 7284, "复杂": 7285, "▁restrict": 7286, "▁putra": 7287, "区域": 7288, "▁menent": 7289, "▁directly": 7290, "▁selatan": 7291, "▁changes": 7292, "▁asking": 7293, "ூர்வ": 7294, "wor": 7295, "cari": 7296, "▁அவர்களின்": 7297, "▁naj": 7298, "▁girls": 7299, "ejut": 7300, "gang": 7301, "▁developed": 7302, "死亡": 7303, "isti": 7304, "▁page": 7305, "ls": 7306, "进一步": 7307, "▁மை": 7308, "ailed": 7309, "ியுடன்": 7310, "▁pals": 7311, "▁melihatnya": 7312, "▁susu": 7313, "年轻": 7314, "▁sungguh": 7315, "▁sept": 7316, "分布": 7317, "ners": 7318, "ஸ்திர": 7319, "மிக்க": 7320, "▁jem": 7321, "ament": 7322, "▁நாட்க": 7323, "▁一个": 7324, "▁anno": 7325, "业务": 7326, "斯坦": 7327, "▁menghub": 7328, "க்கண": 7329, "abatan": 7330, "wak": 7331, "▁flat": 7332, "▁lg": 7333, "情况下": 7334, "▁mark": 7335, "▁dama": 7336, "可能会": 7337, "illing": 7338, "▁请问": 7339, "分钟": 7340, "▁தொழிற்": 7341, "ிருந்தார்": 7342, "▁pinjaman": 7343, "▁wes": 7344, "▁nov": 7345, "▁எண்ணிக்கை": 7346, "所有的": 7347, "▁ஒத்து": 7348, "urangan": 7349, "▁வார்த்த": 7350, "rakan": 7351, "▁weight": 7352, "▁final": 7353, "▁harganya": 7354, "▁plant": 7355, "▁saudara": 7356, "▁studies": 7357, "fc": 7358, "▁kematian": 7359, "▁சூழ": 7360, "▁lack": 7361, "▁complain": 7362, "▁terkenal": 7363, "ball": 7364, "▁led": 7365, "▁nasional": 7366, "▁இன": 7367, "▁bidang": 7368, "ிர்": 7369, "尤其": 7370, "▁website": 7371, "ikum": 7372, "▁kim": 7373, "mo": 7374, "▁memut": 7375, "▁rup": 7376, "后的": 7377, "▁விரிவ": 7378, "取得": 7379, "atures": 7380, "▁obtain": 7381, "▁systems": 7382, "未来": 7383, "▁யார": 7384, "▁rancangan": 7385, "▁masing": 7386, "▁celebr": 7387, "▁mengurangkan": 7388, "▁由于": 7389, "▁selesa": 7390, "▁தீர்மான": 7391, "ground": 7392, "▁oppos": 7393, "▁pegawai": 7394, "▁ppl": 7395, "▁elektr": 7396, "aur": 7397, "தன்": 7398, "▁yakin": 7399, "▁penerb": 7400, "ற்றுவ": 7401, "▁நடக்க": 7402, "▁resources": 7403, "大利": 7404, "▁nenek": 7405, "认识": 7406, "▁serupa": 7407, "▁tomorrow": 7408, "▁வகையான": 7409, "ark": 7410, "▁கண்கா": 7411, "▁taw": 7412, "▁கொண்டிருக்க": 7413, "ij": 7414, "வராக": 7415, "▁biarkan": 7416, "▁உடன": 7417, "epend": 7418, "▁feed": 7419, "▁reported": 7420, "▁hadapan": 7421, "▁determin": 7422, "ம்ம": 7423, "▁fix": 7424, "▁பரவ": 7425, "▁ton": 7426, "▁carry": 7427, "▁waste": 7428, "▁seterusnya": 7429, "unter": 7430, "▁repla": 7431, "▁otherwise": 7432, "▁lives": 7433, "的重要": 7434, "▁நண்ப": 7435, "▁yuran": 7436, "加入": 7437, "正常": 7438, "▁apple": 7439, "参数": 7440, "都不": 7441, "▁cars": 7442, "快速": 7443, "▁buka": 7444, "▁ship": 7445, "▁terbuka": 7446, "daya": 7447, "▁kia": 7448, "▁divaksin": 7449, "▁tujuan": 7450, "▁jangka": 7451, "aksi": 7452, "共同": 7453, "▁arch": 7454, "▁lampu": 7455, "▁average": 7456, "▁taj": 7457, "ாரம்": 7458, "▁announ": 7459, "▁ஆணைய": 7460, "▁இடம்": 7461, "ங்களிலும்": 7462, "▁யெகோவ": 7463, "▁எண்": 7464, "▁han": 7465, "gor": 7466, "▁dead": 7467, "▁பணிய": 7468, "植物": 7469, "▁அல்லா": 7470, "▁கூடிய": 7471, "lahkan": 7472, "▁செயல்படுத்த": 7473, "制度": 7474, "参与": 7475, "▁சேவை": 7476, "vent": 7477, "▁எதிரான": 7478, "indu": 7479, "▁sit": 7480, "▁secret": 7481, "▁enc": 7482, "▁huh": 7483, "▁introduced": 7484, "▁learning": 7485, "多的": 7486, "▁கர்த்த": 7487, "aru": 7488, "▁கத": 7489, "▁keselamatan": 7490, "▁bebas": 7491, "ahagian": 7492, "▁doa": 7493, "erah": 7494, "itude": 7495, "特性": 7496, "cal": 7497, "தாகும்": 7498, "▁பதிவ": 7499, "改善": 7500, "▁tast": 7501, "而已": 7502, "▁ign": 7503, "ப்புற": 7504, "▁தேதி": 7505, "▁kin": 7506, "▁aja": 7507, "▁siam": 7508, "95": 7509, "▁berhati": 7510, "▁request": 7511, "▁meras": 7512, "ிரா": 7513, "▁palsu": 7514, "▁scient": 7515, "asilkan": 7516, "▁sehari": 7517, "▁receive": 7518, "▁கொண்டுள்ளது": 7519, "ops": 7520, "▁காண்ப": 7521, "300": 7522, "公司的": 7523, "▁tenang": 7524, "▁ubat": 7525, "▁disapp": 7526, "创造": 7527, "▁necessary": 7528, "▁தொடர்பான": 7529, "bur": 7530, "▁ஆலோச": 7531, "▁jad": 7532, "intang": 7533, "த்துவம்": 7534, "▁。": 7535, "女性": 7536, "▁obv": 7537, "ளுடைய": 7538, "▁தண்ண": 7539, "▁suara": 7540, "广泛": 7541, "87": 7542, "ிடிக்க": 7543, "வுகள்": 7544, "▁perubatan": 7545, "84": 7546, "▁fla": 7547, "▁மக்கள": 7548, "▁用": 7549, "▁beijing": 7550, "▁பைபி": 7551, "▁minutes": 7552, "▁terengganu": 7553, "▁perfect": 7554, "▁department": 7555, "那样": 7556, "abiskan": 7557, "▁conclusion": 7558, "amin": 7559, "▁chem": 7560, "▁medic": 7561, "▁senior": 7562, "避免": 7563, "ilayah": 7564, "▁ens": 7565, "▁இந்தக்": 7566, "▁concept": 7567, "十年": 7568, "▁menak": 7569, "▁உயிரிழ": 7570, "▁முன்பு": 7571, "off": 7572, "imin": 7573, "数字": 7574, "意思": 7575, "▁fully": 7576, "▁ஏற்கனவே": 7577, "▁மருத்துவமன": 7578, "enter": 7579, "▁merujuk": 7580, "istry": 7581, "▁terms": 7582, "▁为了": 7583, "▁hadi": 7584, "▁方法": 7585, "▁sebalik": 7586, "▁அணுக": 7587, "atory": 7588, "▁decision": 7589, "▁வட்ட": 7590, "▁peace": 7591, "▁island": 7592, "▁ability": 7593, "▁அனுப்ப": 7594, "zi": 7595, "ூட்ட": 7596, "jen": 7597, "▁accom": 7598, "▁suatu": 7599, "▁mix": 7600, "▁professional": 7601, "▁melawat": 7602, "▁pn": 7603, "▁que": 7604, "▁தொடர்பாக": 7605, "ந்தைய": 7606, "▁1)": 7607, "▁sya": 7608, "▁pangg": 7609, "▁这是": 7610, "▁gor": 7611, "▁tea": 7612, "▁distr": 7613, "மைகள்": 7614, "▁aktiviti": 7615, "▁paid": 7616, "▁வரி": 7617, "▁science": 7618, "▁exch": 7619, "▁mengand": 7620, "▁இந்": 7621, "etahuan": 7622, "eri": 7623, "முள்ள": 7624, "▁சகோதர": 7625, "也可以": 7626, "▁trip": 7627, "▁confirm": 7628, "▁evid": 7629, "▁groups": 7630, "▁தாக்குத": 7631, "▁கர": 7632, "▁promot": 7633, "▁சேர்க்க": 7634, "▁புரிந்து": 7635, "hat": 7636, "36": 7637, "ague": 7638, "▁வணிக": 7639, "食物": 7640, "iced": 7641, "竞争": 7642, "▁கேர": 7643, "▁அறிவு": 7644, "▁weak": 7645, "▁விவாத": 7646, "▁worry": 7647, "adangkan": 7648, "▁jual": 7649, "▁administ": 7650, "清楚": 7651, "otong": 7652, "unjuk": 7653, "▁asas": 7654, "疾病": 7655, "rah": 7656, "icated": 7657, "不错": 7658, "▁cup": 7659, "▁rock": 7660, "▁eye": 7661, "▁dur": 7662, "▁ஆகியோர்": 7663, "变得": 7664, "综合": 7665, "▁wilayah": 7666, "来越": 7667, "评价": 7668, "▁river": 7669, "▁buying": 7670, "▁milik": 7671, "的主要": 7672, "▁umno": 7673, "▁complete": 7674, "化学": 7675, "▁ayat": 7676, "▁dog": 7677, "▁美国": 7678, "▁insp": 7679, "▁gak": 7680, "▁impact": 7681, "▁swee": 7682, "▁except": 7683, "▁hab": 7684, "▁muz": 7685, "▁region": 7686, "▁விருது": 7687, "▁這": 7688, "55": 7689, "▁அறிக்க": 7690, "lai": 7691, "▁வருட": 7692, "▁hantar": 7693, "ப்புகள்": 7694, "▁அடிப்படை": 7695, "▁அறிய": 7696, "▁பின்ப": 7697, "க்குப்": 7698, "▁அமெரிக்கா": 7699, "▁civil": 7700, "▁maintain": 7701, "▁picture": 7702, "有一个": 7703, "▁vaccinated": 7704, "fl": 7705, "公共": 7706, "▁செலுத்த": 7707, "nes": 7708, "▁wood": 7709, "越来越": 7710, "▁hubungi": 7711, "▁ஆசிரிய": 7712, "ancong": 7713, "▁ஜி": 7714, "empt": 7715, "▁fuck": 7716, "▁உத்தர": 7717, "uth": 7718, "▁aj": 7719, "alaikum": 7720, "普通": 7721, "uci": 7722, "▁giving": 7723, "▁perbezaan": 7724, "▁mengubah": 7725, "▁du": 7726, "▁places": 7727, "指出": 7728, "▁board": 7729, "▁daging": 7730, "▁hello": 7731, "ப்பட்டன": 7732, "▁foto": 7733, "▁menggunakannya": 7734, "▁extra": 7735, "▁அனுபவ": 7736, "tas": 7737, "▁brain": 7738, "▁terkejut": 7739, "▁emerg": 7740, "▁rosak": 7741, "▁எடுத்துக்க": 7742, "வின்": 7743, "aining": 7744, "▁hop": 7745, "▁ul": 7746, "经过": 7747, "▁அதிகாரிகள்": 7748, "▁cand": 7749, "▁`": 7750, "▁perubahan": 7751, "欢迎": 7752, "▁rac": 7753, "带来": 7754, "▁assalam": 7755, "▁operation": 7756, "只能": 7757, "销售": 7758, "ho": 7759, "▁measures": 7760, "任务": 7761, "分子": 7762, "kata": 7763, "▁pastu": 7764, "▁round": 7765, "▁சார்ந்த": 7766, "联系": 7767, "▁tub": 7768, "சம்": 7769, "▁தெரி": 7770, "ாலான": 7771, "▁load": 7772, "dana": 7773, "ilities": 7774, "னாக": 7775, "unting": 7776, "▁disease": 7777, "augh": 7778, "▁response": 7779, "▁fear": 7780, "▁investment": 7781, "jarah": 7782, "▁kang": 7783, "方向": 7784, "▁surface": 7785, "▁urusan": 7786, "▁kand": 7787, "▁பேச்ச": 7788, "▁regular": 7789, "说明": 7790, "时代": 7791, "▁protect": 7792, "▁குறிப்பிடத்தக்க": 7793, "阶段": 7794, "手机": 7795, "ீப": 7796, "必要": 7797, "outh": 7798, "▁advant": 7799, "▁memikir": 7800, "▁fan": 7801, "▁enterpr": 7802, "基金": 7803, "▁rules": 7804, "▁tong": 7805, "fs": 7806, "▁இதே": 7807, "▁tugas": 7808, "意识": 7809, "▁குறிப்பாக": 7810, "▁object": 7811, "全部": 7812, "分析了": 7813, "▁அறிவியல்": 7814, "作品": 7815, "▁நிறைவே": 7816, "bc": 7817, "yor": 7818, "▁charge": 7819, "▁hahahah": 7820, "▁darah": 7821, "▁vs": 7822, "▁showed": 7823, "▁மறை": 7824, "▁jack": 7825, "▁upon": 7826, "▁klang": 7827, "▁மிகப்ப": 7828, "emas": 7829, "க்கா": 7830, "▁restaur": 7831, "▁குடியரசு": 7832, "一位": 7833, "▁hujung": 7834, "▁பிரா": 7835, "▁warga": 7836, "▁விட்டு": 7837, "下降": 7838, "十分": 7839, "氧化": 7840, "▁ஜூ": 7841, "▁kece": 7842, "▁watching": 7843, "▁needed": 7844, "▁நிறுத்த": 7845, "▁sky": 7846, "▁வெவ்": 7847, "▁feels": 7848, "▁ரோ": 7849, "是个": 7850, "-2015": 7851, "▁previous": 7852, "▁mine": 7853, "▁changed": 7854, "▁கலா": 7855, "ார்க்க": 7856, "▁வான": 7857, "▁kons": 7858, "学家": 7859, "▁increasing": 7860, "▁அரசின்": 7861, "igr": 7862, "rupt": 7863, "▁gagal": 7864, "▁sebelumnya": 7865, "▁லா": 7866, "▁据": 7867, "▁செயல": 7868, "连接": 7869, "▁flight": 7870, "▁download": 7871, "yataan": 7872, "最终": 7873, "身体": 7874, "▁சதவீதம்": 7875, "▁உப": 7876, "▁depos": 7877, "▁utara": 7878, "▁bertemu": 7879, "hib": 7880, "▁காரணம்": 7881, "▁barisan": 7882, "▁windows": 7883, "-2006": 7884, "▁என்னவென்றால்": 7885, "▁restoran": 7886, "▁seminggu": 7887, "bah": 7888, "▁iron": 7889, "▁rela": 7890, "ட்ரோ": 7891, "贸易": 7892, "▁ரெ": 7893, "ாவுக்கு": 7894, "ில்ல": 7895, "▁sabar": 7896, "bet": 7897, "▁bermaksud": 7898, "很好": 7899, "▁ts": 7900, "▁tulis": 7901, "ux": 7902, "▁新": 7903, "▁neigh": 7904, "▁இல்லாத": 7905, "▁mertua": 7906, "会议": 7907, "umkan": 7908, "的工作": 7909, "▁ki": 7910, "▁mengajar": 7911, "▁கருத": 7912, "▁movie": 7913, "▁tick": 7914, "▁spirit": 7915, "▁menyes": 7916, "▁dlm": 7917, "▁beradik": 7918, "关注": 7919, "▁solution": 7920, "▁eating": 7921, "的高": 7922, "动力": 7923, "ocks": 7924, "▁ns": 7925, "▁perl": 7926, "▁diambil": 7927, "▁represent": 7928, "▁jobs": 7929, "▁fed": 7930, "▁முயற்சி": 7931, "ொள்": 7932, "▁dipanggil": 7933, "英语": 7934, "▁trafik": 7935, "罗斯": 7936, "▁gone": 7937, "▁கற்ப": 7938, "▁entire": 7939, "▁desp": 7940, "ிற்கும்": 7941, "▁immediately": 7942, "▁கவ": 7943, "▁stesen": 7944, "▁stage": 7945, "▁tand": 7946, "83": 7947, "▁packa": 7948, "▁write": 7949, "▁safety": 7950, "▁timur": 7951, "适合": 7952, "▁driver": 7953, "jo": 7954, "ension": 7955, "▁பொருள்": 7956, "ujud": 7957, "▁village": 7958, "oken": 7959, "▁வலியு": 7960, "▁nature": 7961, "▁sihat": 7962, "▁strugg": 7963, "提供了": 7964, "组成": 7965, "▁menjawab": 7966, "▁huk": 7967, "▁wei": 7968, "ancar": 7969, "时期": 7970, "▁fes": 7971, "osing": 7972, "▁அன்று": 7973, "▁pack": 7974, "部门": 7975, "三个": 7976, "▁sikap": 7977, "▁tentera": 7978, "▁optim": 7979, "pd": 7980, "▁kejadian": 7981, "▁temperature": 7982, "▁கிள": 7983, "▁வெவ்வேறு": 7984, "verse": 7985, "▁போல்": 7986, "▁contribut": 7987, "ikiran": 7988, "arr": 7989, "▁berfungsi": 7990, "▁gets": 7991, "▁indeed": 7992, "▁wouldn": 7993, "▁குழந்தைகள்": 7994, "▁lose": 7995, "araan": 7996, "危机": 7997, "▁யா": 7998, "/3": 7999, "▁seni": 8000, "▁சூழ்": 8001, "ogn": 8002, "▁acara": 8003, "▁menghabiskan": 8004, "▁8.": 8005, "▁ice": 8006, "▁ஆதரவு": 8007, "表面": 8008, "yen": 8009, "geris": 8010, "记录": 8011, "▁வேளா": 8012, "▁billion": 8013, "eras": 8014, "▁selling": 8015, "upid": 8016, "▁base": 8017, "வீன": 8018, "ators": 8019, "▁துற": 8020, "letakkan": 8021, "从而": 8022, "▁starting": 8023, "▁உள்ளட": 8024, "sia": 8025, "▁below": 8026, "▁added": 8027, "terday": 8028, "▁salam": 8029, "erc": 8030, "anch": 8031, "▁kesa": 8032, "etengah": 8033, "▁அதனால்": 8034, "aged": 8035, "ev": 8036, "安装": 8037, "理解": 8038, "/05/": 8039, "▁finish": 8040, "▁asalnya": 8041, "类似": 8042, "▁根据": 8043, "▁விஜ": 8044, "mak": 8045, "▁为": 8046, "க்ஸ்": 8047, "pression": 8048, "▁altern": 8049, "更多的": 8050, "ufact": 8051, "平均": 8052, ":30": 8053, "根本": 8054, "▁democr": 8055, "▁driving": 8056, "的发展": 8057, "▁america": 8058, "▁மொழி": 8059, "ங்களைப்": 8060, "▁reform": 8061, "9,": 8062, "行业": 8063, "▁former": 8064, "7,": 8065, "▁dark": 8066, "awal": 8067, "▁inggeris": 8068, "▁earn": 8069, "▁ஏற்ற": 8070, "▁parts": 8071, "▁creat": 8072, "▁ஏனென்றால்": 8073, "பட்ட": 8074, "病毒": 8075, "▁கேள்வி": 8076, "▁ஒழு": 8077, "atever": 8078, "''": 8079, "▁wid": 8080, "▁mama": 8081, "▁nur": 8082, "▁kemah": 8083, "▁memutuskan": 8084, "▁这种": 8085, "▁kemas": 8086, "▁progress": 8087, "▁heat": 8088, "▁yesterday": 8089, "▁caused": 8090, "▁install": 8091, "香港": 8092, "▁muslim": 8093, "▁perdana": 8094, "▁electric": 8095, "▁customer": 8096, "டிப்பு": 8097, "▁ஜோ": 8098, "iku": 8099, "▁resid": 8100, "性和": 8101, "▁sesetengah": 8102, "zah": 8103, "▁gh": 8104, "ாகு": 8105, "▁தமிழக": 8106, "▁balan": 8107, "▁female": 8108, "வதில்": 8109, "▁completely": 8110, "▁layak": 8111, "▁pesanan": 8112, "▁keber": 8113, "ulations": 8114, "44": 8115, "▁காந்தி": 8116, "▁பரிசோத": 8117, "德国": 8118, "பாடு": 8119, "▁coffee": 8120, "▁john": 8121, "▁complex": 8122, "gur": 8123, "▁transform": 8124, "▁நிறுவனங்கள்": 8125, "其它": 8126, "▁jualan": 8127, "porkan": 8128, "வதற்காக": 8129, "board": 8130, "▁அன்ப": 8131, "▁statement": 8132, "rol": 8133, "▁tenaga": 8134, "▁beri": 8135, "cel": 8136, "▁himself": 8137, "▁mint": 8138, "▁influence": 8139, "▁kaedah": 8140, "▁seolah": 8141, "ப்பின்": 8142, "▁september": 8143, "▁ஓர்": 8144, "负责": 8145, "▁fri": 8146, "保证": 8147, "rt": 8148, "价钱": 8149, "▁ஐந்து": 8150, "▁இருப்பத": 8151, "某些": 8152, "▁costs": 8153, "▁profes": 8154, "▁வங்கி": 8155, "▁reduce": 8156, "事情": 8157, "▁சுய": 8158, "தியில்": 8159, "▁cha": 8160, "▁supply": 8161, "▁ஜனாதிபதி": 8162, "▁திறன்": 8163, "▁ஐரோப்பிய": 8164, "tra": 8165, "▁வெற்ற": 8166, "器的": 8167, "▁然后": 8168, "தியான": 8169, "▁உள்ளனர்": 8170, "ஞான": 8171, "▁மனை": 8172, "riage": 8173, "▁host": 8174, "曾经": 8175, "▁decided": 8176, "erja": 8177, "▁மும்ப": 8178, "定义": 8179, "விகித": 8180, "▁isra": 8181, "结束": 8182, "▁western": 8183, "▁heavy": 8184, "▁என்னை": 8185, "▁பாகிஸ்தான்": 8186, "1)": 8187, "▁வேல": 8188, "ஷி": 8189, "aki": 8190, "▁seks": 8191, "▁kesalahan": 8192, "ives": 8193, "▁sweet": 8194, "▁அதிகமான": 8195, "▁track": 8196, "▁manufact": 8197, "▁psy": 8198, "▁பண்ப": 8199, "izens": 8200, "概念": 8201, "▁antar": 8202, "ாய்வு": 8203, "▁tutup": 8204, "▁உள": 8205, "▁strai": 8206, "次数": 8207, "▁prevent": 8208, "采取": 8209, "onstr": 8210, "▁factors": 8211, "▁tud": 8212, "去年": 8213, "lad": 8214, "▁சக்த": 8215, "▁iaitu": 8216, "ைகளும்": 8217, "▁teaching": 8218, "经常": 8219, "▁cu": 8220, "itkan": 8221, "▁location": 8222, "分别": 8223, "மிய": 8224, "▁brought": 8225, "▁பிள": 8226, "மில்லை": 8227, "▁mir": 8228, "cement": 8229, "ரவாத": 8230, "▁பயன": 8231, "▁கேட்க": 8232, "心理": 8233, "显著": 8234, "对象": 8235, "okes": 8236, "▁russ": 8237, "▁வாகன": 8238, "▁நோய்": 8239, "▁digital": 8240, "weet": 8241, "▁对于": 8242, "▁exact": 8243, "测量": 8244, "asons": 8245, "ங்களுடைய": 8246, "▁penggunaan": 8247, "மைச்ச": 8248, "就像": 8249, "▁loan": 8250, "லைகள்": 8251, "பட்ச": 8252, "▁stuff": 8253, "年前": 8254, "▁mee": 8255, "யில": 8256, "▁manis": 8257, "uluh": 8258, "▁tukar": 8259, "vt": 8260, "டியோ": 8261, "egang": 8262, "肯定": 8263, "▁சாத்திய": 8264, "机制": 8265, "ஞ்சா": 8266, "包含": 8267, "தாவது": 8268, "▁சரியான": 8269, "▁யார்": 8270, "▁vaccine": 8271, "▁chat": 8272, "▁peraturan": 8273, "▁keuntungan": 8274, "商业": 8275, "ero": 8276, "umur": 8277, "▁held": 8278, "▁போர்": 8279, "▁surv": 8280, "intah": 8281, "▁yout": 8282, "期间": 8283, "வர்களை": 8284, "ாயம்": 8285, "成员": 8286, "▁ketua": 8287, "应用程序": 8288, "icious": 8289, "▁potential": 8290, "▁如": 8291, "emik": 8292, "▁rapat": 8293, "▁shoot": 8294, "▁activities": 8295, "லான": 8296, "▁ஒதுக்க": 8297, "sm": 8298, "வித": 8299, "▁பகுதிகளில்": 8300, "ஷ்மீ": 8301, "▁ஜெ": 8302, "▁தவற": 8303, "▁switch": 8304, "▁berguna": 8305, "申请": 8306, "▁stupid": 8307, "▁சிந்த": 8308, "▁வர்க்க": 8309, "楼主": 8310, "▁mainly": 8311, "▁சதவிகித": 8312, "/4": 8313, "▁அமைச்சகம்": 8314, "限制": 8315, "▁எங்கள்": 8316, "▁''": 8317, "▁site": 8318, "▁dew": 8319, "ailand": 8320, "▁நிதிய": 8321, "西亚": 8322, "▁கிடைக்கும்": 8323, "▁எதுவும்": 8324, "tery": 8325, "▁cau": 8326, "▁lucu": 8327, "▁berikut": 8328, "法国": 8329, "▁ways": 8330, "▁questions": 8331, "▁jb": 8332, "ிடு": 8333, "▁சமன்ப": 8334, "▁3,": 8335, "▁கர்": 8336, "信号": 8337, "创建": 8338, "▁பின்ன": 8339, "prop": 8340, "▁comfort": 8341, "▁sejarah": 8342, "▁recogn": 8343, "▁babi": 8344, "▁australia": 8345, "ino": 8346, "irim": 8347, "itik": 8348, "▁சிகிச்சை": 8349, "▁பிரச்சின": 8350, "错误": 8351, "bal": 8352, "▁reflect": 8353, "▁floor": 8354, "▁itself": 8355, "問題": 8356, "▁fresh": 8357, "▁வர்த்தக": 8358, "▁hdb": 8359, "6,": 8360, "▁jaya": 8361, "▁அவர்களு": 8362, "ifi": 8363, "akat": 8364, "▁menikmati": 8365, "ler": 8366, "த்தம்": 8367, "▁whatever": 8368, "▁aid": 8369, "cover": 8370, "▁college": 8371, "ule": 8372, "ிட்டி": 8373, "▁நிகழ்வ": 8374, "▁அக்க": 8375, "▁mulut": 8376, "▁看": 8377, "▁kid": 8378, "oking": 8379, "▁mechanism": 8380, "规模": 8381, "▁via": 8382, "▁mengak": 8383, "▁இன்ற": 8384, "▁பிரதி": 8385, "▁tanda": 8386, "ப்த": 8387, "▁kamera": 8388, "ival": 8389, "▁kalah": 8390, "?\"": 8391, "▁rout": 8392, "▁emot": 8393, "▁தங்க": 8394, "便宜": 8395, "▁மாறு": 8396, "▁35": 8397, "▁fb": 8398, "▁perasan": 8399, "▁semp": 8400, "க்கே": 8401, "▁penerbangan": 8402, "▁wealth": 8403, "▁இணைந்து": 8404, "▁தற்க": 8405, "98": 8406, "附近": 8407, "ened": 8408, "▁மி": 8409, "▁பட்டிய": 8410, "到的": 8411, "yal": 8412, "niah": 8413, "▁2000": 8414, "ras": 8415, "我們": 8416, "▁எல்லை": 8417, "▁மிகப்பெர": 8418, "akes": 8419, "மல்ல": 8420, "▁விளையாட்டு": 8421, "▁அப்போது": 8422, "正确": 8423, "▁spot": 8424, "现象": 8425, "enda": 8426, "▁benc": 8427, "டுப்பு": 8428, "▁behavior": 8429, "dis": 8430, "▁manager": 8431, "incangkan": 8432, "▁grab": 8433, "▁தோல்": 8434, "▁email": 8435, "ograp": 8436, "ாவும்": 8437, ".)": 8438, "▁provided": 8439, "மூ": 8440, "▁assalamu": 8441, "儿童": 8442, "▁kekurangan": 8443, "▁chiu": 8444, "▁penjaga": 8445, "在一": 8446, "▁டே": 8447, "▁chao": 8448, "▁meaning": 8449, "?'": 8450, "▁கடன்": 8451, "▁விற்பனை": 8452, "▁பெண்கள்": 8453, "ஷ்ண": 8454, "▁rid": 8455, "etahui": 8456, "其实": 8457, "▁imagine": 8458, "▁naf": 8459, "▁kemahiran": 8460, "▁independ": 8461, ":00": 8462, "▁latihan": 8463, "▁pkp": 8464, "▁famous": 8465, "நர்": 8466, "பிர": 8467, "▁ஸ்ப": 8468, "▁rab": 8469, "ன்ச": 8470, "ையைப்": 8471, "▁peduli": 8472, "airs": 8473, "▁truly": 8474, "/05/2022": 8475, "食品": 8476, "▁நியூ": 8477, "undred": 8478, "▁செய்தி": 8479, "总是": 8480, "▁பெயர்": 8481, "▁mencadangkan": 8482, "ரச": 8483, "▁increased": 8484, "▁mengetahui": 8485, "▁straight": 8486, "▁படத்தில்": 8487, "金属": 8488, "▁ஆன்": 8489, "▁psych": 8490, "▁பிரபல": 8491, "alaysia": 8492, "ipe": 8493, "▁கிரு": 8494, "▁japanese": 8495, "他們": 8496, "adar": 8497, "▁வாங்க": 8498, "温度": 8499, "▁broad": 8500, "给我": 8501, "▁ஐக்கிய": 8502, "mal": 8503, "▁blam": 8504, "▁limited": 8505, "▁characteristics": 8506, "▁pant": 8507, "▁smart": 8508, "▁bn": 8509, "▁lord": 8510, "▁tired": 8511, "▁போலீசார்": 8512, "▁berakhir": 8513, "▁turned": 8514, "▁好": 8515, "ளிக்க": 8516, "ிடும்": 8517, "民族": 8518, "▁disebut": 8519, "த்திற்கான": 8520, "வருக்கும்": 8521, "▁tao": 8522, "faat": 8523, "eligi": 8524, "▁basis": 8525, "▁knn": 8526, "实施": 8527, "▁tahniah": 8528, "手术": 8529, "▁bersa": 8530, "▁பிரதம": 8531, "▁与": 8532, "amer": 8533, "▁scr": 8534, "▁mengelakkan": 8535, "ாா்": 8536, "▁காலத்தில்": 8537, "▁demi": 8538, "ato": 8539, "▁sym": 8540, "▁vot": 8541, "▁daugh": 8542, "மற்ற": 8543, "▁hahahaha": 8544, "▁lewat": 8545, "ukt": 8546, "▁veh": 8547, "▁bantu": 8548, "▁bin": 8549, "/2": 8550, "媒体": 8551, "▁சமீப": 8552, "▁kiri": 8553, "நகர": 8554, "izing": 8555, "▁located": 8556, "▁bergerak": 8557, "你可以": 8558, "▁fault": 8559, "▁menghubungi": 8560, "arm": 8561, "தற்காக": 8562, "▁berter": 8563, "vis": 8564, "▁dial": 8565, "ித்தார்": 8566, "eliling": 8567, "也会": 8568, "▁monitor": 8569, "pon": 8570, "▁mesin": 8571, "▁thailand": 8572, "▁novel": 8573, "▁melebih": 8574, "▁ust": 8575, "ench": 8576, "▁adop": 8577, "相当": 8578, "yorkan": 8579, "▁wajah": 8580, "专家": 8581, "▁lemah": 8582, "▁calcul": 8583, "▁initi": 8584, "▁பணிகள்": 8585, "▁spes": 8586, "ீர": 8587, "gem": 8588, "nah": 8589, "நிற": 8590, "▁gunung": 8591, "▁bal": 8592, "▁repe": 8593, "▁user": 8594, "iarkan": 8595, "ாரி": 8596, "▁decl": 8597, "▁lambat": 8598, "▁negative": 8599, "dn": 8600, "▁pelak": 8601, "uarant": 8602, "▁pattern": 8603, "▁quar": 8604, "▁hadiah": 8605, "▁rights": 8606, "▁shopping": 8607, "erve": 8608, "的时间": 8609, "当时": 8610, "hl": 8611, "基础上": 8612, "angani": 8613, "▁allowed": 8614, "▁berkesan": 8615, "附件": 8616, "▁mobile": 8617, "▁மில்லியன்": 8618, "课程": 8619, "▁mb": 8620, "▁stone": 8621, "inter": 8622, "▁மேற்கு": 8623, "▁hundred": 8624, "lahirkan": 8625, "允许": 8626, "是不": 8627, "ica": 8628, "▁இப்பட": 8629, "-0": 8630, "放在": 8631, "▁reka": 8632, "▁ஆறு": 8633, "物质": 8634, "ோசலி": 8635, "▁lic": 8636, "▁testing": 8637, "▁தொகு": 8638, "▁satisf": 8639, "▁ஸ்ரீ": 8640, "ahal": 8641, "▁kee": 8642, "▁பிறந்த": 8643, "ொழ": 8644, "▁dear": 8645, "▁வாழ்க்கை": 8646, "人在": 8647, "▁critic": 8648, "▁conduct": 8649, "▁pingg": 8650, "▁உண்மையான": 8651, "▁clothes": 8652, "▁assalamualaikum": 8653, "oa": 8654, "合理": 8655, "undi": 8656, "▁மாதிர": 8657, "▁materials": 8658, "you": 8659, "ably": 8660, "izen": 8661, "lv": 8662, "ிக்கெட்": 8663, "▁handle": 8664, "▁perkataan": 8665, "▁துவ": 8666, "மிருந்து": 8667, "ocket": 8668, "php": 8669, "▁கண்ண": 8670, "▁betapa": 8671, "新闻": 8672, "▁பயங்க": 8673, "▁ptg": 8674, "▁பார்ப்போம்": 8675, "ema": 8676, "▁planning": 8677, "▁duk": 8678, "▁couple": 8679, "名字": 8680, "▁bukankah": 8681, "的地": 8682, "▁stabil": 8683, "▁takkan": 8684, "97": 8685, "ரிட": 8686, "▁raja": 8687, "飞机": 8688, "利益": 8689, "icara": 8690, "▁最后": 8691, "வதில்லை": 8692, "独立": 8693, "பர": 8694, "▁suitable": 8695, "ங்களாக": 8696, "▁அதிகரிக்க": 8697, "▁இடங்களில்": 8698, "▁虽然": 8699, "▁catch": 8700, "▁pc": 8701, "▁இந்தத்": 8702, "hu": 8703, "▁berbal": 8704, "▁மாணவர்கள்": 8705, "bing": 8706, "reci": 8707, "出口": 8708, "cayai": 8709, "anced": 8710, "ேசு": 8711, "▁rindu": 8712, "▁niat": 8713, "ustr": 8714, "▁தெரியும்": 8715, "意味着": 8716, "▁involved": 8717, "▁எவ்வளவு": 8718, "▁trend": 8719, "▁பணியா": 8720, "我想": 8721, "vey": 8722, "▁ec": 8723, "▁உற்பத்திய": 8724, "▁reve": 8725, "使得": 8726, "▁டை": 8727, "வேன்": 8728, "▁தலைமைய": 8729, "ungkinan": 8730, "▁sebaliknya": 8731, "posed": 8732, "无论": 8733, "ம்பு": 8734, "▁range": 8735, "▁craz": 8736, "▁insurance": 8737, "ancy": 8738, "▁goal": 8739, "▁holi": 8740, "▁kalian": 8741, "去了": 8742, "▁pantai": 8743, "▁சுற்றுலா": 8744, "மாகவும்": 8745, "您的": 8746, "xic": 8747, "年来": 8748, "▁laluan": 8749, "ோட": 8750, "人口": 8751, "kod": 8752, "▁provides": 8753, "▁mangsa": 8754, "andingkan": 8755, "▁expected": 8756, "ைகளையும்": 8757, "▁ஆராய்ச்சி": 8758, "▁despite": 8759, "▁தயாரிப்ப": 8760, "▁சவ": 8761, "▁phil": 8762, "▁~": 8763, "▁prior": 8764, "的东西": 8765, "inkan": 8766, "▁நாட்டு": 8767, "▁applied": 8768, "னைகள்": 8769, "▁undi": 8770, "ோதைய": 8771, "▁panggilan": 8772, "active": 8773, "angga": 8774, "▁kertas": 8775, "▁பயன்படுத்தி": 8776, "கி": 8777, "unuh": 8778, "以后": 8779, "战争": 8780, "▁மண்ட": 8781, "▁effort": 8782, "▁drag": 8783, "ாய்ந்த": 8784, "▁ஒத்துழை": 8785, "感染": 8786, "▁daerah": 8787, "▁இவ்வாறு": 8788, "▁ded": 8789, "▁rat": 8790, "▁berbaloi": 8791, "▁numbers": 8792, "▁victim": 8793, "▁features": 8794, "▁respect": 8795, "▁pendek": 8796, "lear": 8797, "itas": 8798, "zhou": 8799, "▁types": 8800, "▁tekanan": 8801, "▁menjalani": 8802, "க்குகள்": 8803, "▁bless": 8804, "装置": 8805, "▁veget": 8806, "▁worse": 8807, "▁customers": 8808, "lation": 8809, "能源": 8810, "▁projek": 8811, "酒店": 8812, "atives": 8813, "▁此外": 8814, "▁depends": 8815, "▁jawab": 8816, "中國": 8817, "got": 8818, "方便": 8819, "கர்": 8820, "▁counter": 8821, "▁அதிப": 8822, "atively": 8823, "旅游": 8824, "▁legal": 8825, "▁cancer": 8826, "状况": 8827, "▁yah": 8828, "ியார்": 8829, "药物": 8830, "我是": 8831, "名的": 8832, "▁pengetahuan": 8833, "uasa": 8834, "▁equipment": 8835, "▁மக்களுக்கு": 8836, "ரங்க": 8837, "▁jial": 8838, "▁ஆகவே": 8839, "▁funct": 8840, "▁pemimpin": 8841, "37": 8842, "▁tump": 8843, "▁0)": 8844, "iah": 8845, "▁hat": 8846, "集团": 8847, "mat": 8848, "▁budget": 8849, "医院": 8850, "▁threat": 8851, "购买": 8852, "▁push": 8853, "▁சோசலி": 8854, "▁memasang": 8855, "▁விளக்க": 8856, "描述": 8857, "▁bonus": 8858, "்களுக்கு": 8859, "▁positif": 8860, "▁kaj": 8861, "满足": 8862, "▁becomes": 8863, "ண்டி": 8864, "tahun": 8865, "nt": 8866, "▁rt": 8867, "▁putrajaya": 8868, "学院": 8869, "▁2)": 8870, "▁discussed": 8871, "有什么": 8872, "▁hanyalah": 8873, "▁prec": 8874, "▁younger": 8875, "iet": 8876, "க்கார": 8877, "▁command": 8878, "ectively": 8879, "平衡": 8880, "▁mintak": 8881, "▁தேவையான": 8882, "▁eks": 8883, "▁prime": 8884, "以上": 8885, "▁diterima": 8886, "▁எனினும்": 8887, "▁வேண்டு": 8888, "தில்லை": 8889, "父母": 8890, "▁முற்ற": 8891, "原理": 8892, "தற்கான": 8893, "▁melebihi": 8894, "▁தன்னுடைய": 8895, "leg": 8896, "▁older": 8897, "▁எச்ச": 8898, "▁சேர்த்த": 8899, "lajaran": 8900, "特殊": 8901, "++": 8902, "岁的": 8903, "▁pow": 8904, "king": 8905, "க்கூட": 8906, "▁evidence": 8907, "吸引": 8908, "▁டாக": 8909, "வர்களின்": 8910, "广告": 8911, "க்குள்": 8912, "▁multiple": 8913, "▁throw": 8914, "两种": 8915, "▁physical": 8916, "▁capac": 8917, "impi": 8918, "▁பெரும்பாலான": 8919, "▁வருகின்றனர்": 8920, "▁《": 8921, "▁youtube": 8922, "மது": 8923, "▁pelik": 8924, "▁subang": 8925, "arily": 8926, "aduh": 8927, "▁update": 8928, "▁ஆரோ": 8929, "ிகா": 8930, "▁kemungkinan": 8931, "协议": 8932, "当地": 8933, "▁தந்த": 8934, "一切": 8935, "▁bahru": 8936, "▁compl": 8937, "交通": 8938, "34": 8939, "▁memposting": 8940, "rop": 8941, "▁passed": 8942, "大多数": 8943, "96": 8944, "akar": 8945, "ம்பெ": 8946, "▁server": 8947, "▁பராம": 8948, "▁chann": 8949, "▁sengaja": 8950, "▁每": 8951, "தேச": 8952, "▁required": 8953, "▁tend": 8954, "担心": 8955, "▁built": 8956, "▁kotak": 8957, "ein": 8958, "▁letter": 8959, "vant": 8960, "▁sebahagian": 8961, "ikel": 8962, "▁பள்ளி": 8963, "▁மின்னழுத்த": 8964, "▁accident": 8965, "vere": 8966, "▁bapak": 8967, "▁வாக்க": 8968, "▁perangai": 8969, "▁cells": 8970, "▁குறைவாக": 8971, "vd": 8972, "▁udara": 8973, "itation": 8974, "eks": 8975, "▁10.": 8976, "ilapan": 8977, "▁இயேசு": 8978, "▁jabatan": 8979, "ptom": 8980, "▁param": 8981, "▁recommend": 8982, "how": 8983, "daftar": 8984, "ர்ட": 8985, "最大的": 8986, "????": 8987, "▁section": 8988, "▁jus": 8989, "▁சார்ப": 8990, "▁centre": 8991, "▁mahk": 8992, "▁பிரிவு": 8993, "▁முதல்வர்": 8994, "卫生": 8995, "▁raj": 8996, "里面": 8997, "bang": 8998, "ளவில்": 8999, "一天": 9000, "▁screen": 9001, "▁bill": 9002, "▁நோக்கி": 9003, "▁விநிய": 9004, "eme": 9005, "▁dpt": 9006, "▁writing": 9007, "预测": 9008, "inding": 9009, "▁kapal": 9010, "32": 9011, "uary": 9012, "விட்": 9013, "▁vote": 9014, "▁suppl": 9015, "▁தொடர்புடைய": 9016, "▁diagn": 9017, "jid": 9018, "limen": 9019, "力量": 9020, "▁bott": 9021, "▁rub": 9022, "值得": 9023, "lat": 9024, "▁உட்பட": 9025, "வார்கள்": 9026, "▁很": 9027, "▁lunch": 9028, "▁opportunity": 9029, "lings": 9030, "经历": 9031, "一個": 9032, "right": 9033, "▁buang": 9034, "▁尽管": 9035, "▁வாக்கு": 9036, "▁gong": 9037, "▁agent": 9038, "小的": 9039, "▁nan": 9040, "▁தீர்க்க": 9041, "▁மாட்ட": 9042, "▁தடை": 9043, "▁marriage": 9044, "西方": 9045, "▁dong": 9046, "▁episod": 9047, "▁melibatkan": 9048, "危险": 9049, "incang": 9050, "ப்படுத்தும்": 9051, "▁வெளியிட": 9052, "▁kesilapan": 9053, "▁没有": 9054, "相册": 9055, "▁விவர": 9056, "che": 9057, "▁weekend": 9058, "太阳": 9059, "▁சொல்": 9060, "▁retur": 9061, "கால": 9062, "策略": 9063, "▁டெல்லி": 9064, "மடைந்த": 9065, "▁kenyataan": 9066, "唯一": 9067, "▁suk": 9068, "▁mengikuti": 9069, "iency": 9070, "▁opinion": 9071, "yer": 9072, "▁ஓட்ட": 9073, "▁levels": 9074, "代码": 9075, "sequ": 9076, "▁cikgu": 9077, "▁rasanya": 9078, "▁gard": 9079, "uces": 9080, "▁kerap": 9081, "sep": 9082, "க்கிர": 9083, "▁2021": 9084, "ertain": 9085, "▁dorang": 9086, "大部分": 9087, "▁algor": 9088, "aly": 9089, "▁முன்னேற்ற": 9090, "pers": 9091, "▁chiong": 9092, "▁memikirkan": 9093, "▁male": 9094, "ously": 9095, "科技": 9096, "▁membenarkan": 9097, "agu": 9098, "▁9.": 9099, "▁partner": 9100, "▁பல்கலைக்கழக": 9101, "第一次": 9102, "சங்க": 9103, "▁sibei": 9104, "差异": 9105, "▁parlimen": 9106, "▁கட்சியின்": 9107, "▁தேச": 9108, "த்துக்": 9109, "▁lembut": 9110, "▁amaz": 9111, "▁jialat": 9112, "▁sir": 9113, "模拟": 9114, "▁exerc": 9115, "▁வழியாக": 9116, "67": 9117, "妈妈": 9118, "▁om": 9119, "ooth": 9120, "▁இத்திட்ட": 9121, "yl": 9122, "▁பிரதிந": 9123, "▁கூறிய": 9124, "td": 9125, "▁வரவே": 9126, "ondon": 9127, "▁skills": 9128, "▁இணைக்க": 9129, "வுக": 9130, "▁dapur": 9131, "▁figure": 9132, "▁保存": 9133, "▁sri": 9134, "▁டால": 9135, "▁minimum": 9136, "的事情": 9137, "▁tanggungjawab": 9138, "年代": 9139, "uti": 9140, "▁pang": 9141, "ayaran": 9142, "▁பார்வ": 9143, "amic": 9144, "▁nut": 9145, "▁jahat": 9146, "▁ஸ்க": 9147, "▁merasakan": 9148, "▁வித்திய": 9149, "belah": 9150, "本身": 9151, "▁aiya": 9152, "▁அதிகம்": 9153, "制作": 9154, "▁வைர": 9155, "▁sgt": 9156, "▁army": 9157, "▁menghasilkan": 9158, "效率": 9159, "计算机": 9160, "ucapkan": 9161, "▁விரைவில்": 9162, "hot": 9163, "▁primary": 9164, "▁details": 9165, "▁injur": 9166, "▁airport": 9167, "ards": 9168, "▁advice": 9169, "▁sharing": 9170, "▁knew": 9171, "▁dikenali": 9172, "▁zhang": 9173, "ிருக்கிறார்": 9174, "ிடையே": 9175, "图像": 9176, "▁அனைத்தும்": 9177, "▁began": 9178, "是什么": 9179, "▁ஆட்சி": 9180, "▁attempt": 9181, "▁crazy": 9182, "▁lancar": 9183, "▁2018": 9184, "▁compon": 9185, "▁pembang": 9186, "ingkatan": 9187, "▁நிலையான": 9188, "▁ஊடக": 9189, "▁feng": 9190, "-2016": 9191, "▁wasn": 9192, "大量": 9193, "arin": 9194, "▁யோ": 9195, "▁tamp": 9196, "不用": 9197, "训练": 9198, ",'": 9199, "▁அனைவரும்": 9200, "我在": 9201, "▁pent": 9202, "▁menyam": 9203, "现实": 9204, "▁muh": 9205, "▁கண்டுபி": 9206, "வச": 9207, "urun": 9208, "▁ali": 9209, "▁செலவு": 9210, "▁கோரிக்க": 9211, "▁dry": 9212, "▁எதிர்ப்ப": 9213, "▁pengajian": 9214, "▁constant": 9215, "▁上传": 9216, "itten": 9217, "▁ipoh": 9218, "▁அம்ச": 9219, "▁caught": 9220, "▁designed": 9221, "nd": 9222, "போல்": 9223, "▁மக்களின்": 9224, "▁spm": 9225, "▁lapangan": 9226, "▁occur": 9227, "的主": 9228, "term": 9229, "▁எப்போதும்": 9230, "▁目前": 9231, "▁makcik": 9232, "大大": 9233, "icles": 9234, "▁sisi": 9235, "▁micro": 9236, "▁ஆட்ட": 9237, "urunan": 9238, "▁steel": 9239, "▁ribu": 9240, "▁berga": 9241, "▁seriously": 9242, "gah": 9243, "▁chap": 9244, "▁2010": 9245, "▁kole": 9246, "▁european": 9247, "亿美元": 9248, "▁transm": 9249, "▁வருமான": 9250, "▁sif": 9251, "▁bersih": 9252, "ளைய": 9253, "▁insurans": 9254, "老师": 9255, "ில்லி": 9256, "保险": 9257, "▁milk": 9258, "elling": 9259, "ாட்டில்": 9260, "▁உன்": 9261, "▁peningkatan": 9262, "gy": 9263, "▁保存到": 9264, "ograph": 9265, "▁mode": 9266, "afe": 9267, "▁下载次数": 9268, "▁下载附件": 9269, "car": 9270, "▁glass": 9271, "▁保存到相册": 9272, "▁ஜெய": 9273, "反对": 9274, "▁32": 9275, "▁மாதம்": 9276, "含量": 9277, "访问": 9278, "▁malaysian": 9279, "lajuan": 9280, "mw": 9281, "ஷ்ய": 9282, "▁வித்தியாச": 9283, "த்தான": 9284, "ர்த்தி": 9285, "▁accur": 9286, "▁pengangk": 9287, "▁செல்லும்": 9288, "▁விவகார": 9289, "uari": 9290, "▁reasons": 9291, "sl": 9292, "?!": 9293, "▁minat": 9294, "jas": 9295, "▁இசை": 9296, "▁rasmi": 9297, "▁இடத்தில்": 9298, "可能是": 9299, "▁hey": 9300, "▁square": 9301, "▁apl": 9302, "47": 9303, "▁looked": 9304, "enalan": 9305, "▁puas": 9306, "afiz": 9307, "▁pembayaran": 9308, "▁விருப்ப": 9309, "▁இருப்பினும்": 9310, "▁]": 9311, "有点": 9312, "委员": 9313, "oon": 9314, "▁இவற்ற": 9315, "/5": 9316, "மனை": 9317, "▁குமார": 9318, "诊断": 9319, "▁israel": 9320, "▁maju": 9321, "生的": 9322, "▁mill": 9323, "实践": 9324, "▁dana": 9325, "▁proposed": 9326, "▁teachers": 9327, "▁இருக்கின்றன": 9328, "型的": 9329, "左右": 9330, "ழ்ந்த": 9331, "▁xin": 9332, "ருடன்": 9333, "▁funny": 9334, "jah": 9335, "மைக்க": 9336, "▁அறிக்கை": 9337, "▁ஹை": 9338, "▁comel": 9339, "enangkan": 9340, "isa": 9341, "▁print": 9342, "▁பாதிக்க": 9343, "▁kill": 9344, "▁persek": 9345, "▁club": 9346, "▁na": 9347, "▁jia": 9348, "拉克": 9349, "中国的": 9350, "ூர": 9351, "ெல்": 9352, "▁யுத்த": 9353, "▁dm": 9354, "▁": 9355, "a": 9356, "e": 9357, "n": 9358, "i": 9359, "t": 9360, "s": 9361, "r": 9362, "்": 9363, "o": 9364, "u": 9365, "l": 9366, "h": 9367, "d": 9368, "m": 9369, "k": 9370, "g": 9371, "p": 9372, "க": 9373, "b": 9374, "ு": 9375, "த": 9376, "y": 9377, "ி": 9378, "c": 9379, ".": 9380, ",": 9381, "ப": 9382, "ம": 9383, "ர": 9384, "ட": 9385, "f": 9386, "w": 9387, "ா": 9388, "வ": 9389, "ன": 9390, "ல": 9391, "ற": 9392, "ள": 9393, "ை": 9394, "ய": 9395, "j": 9396, "v": 9397, "ச": 9398, "ந": 9399, "的": 9400, "。": 9401, "0": 9402, "-": 9403, "அ": 9404, "1": 9405, "இ": 9406, "ே": 9407, "2": 9408, "ண": 9409, "ெ": 9410, "ோ": 9411, "?": 9412, "'": 9413, "எ": 9414, "ங": 9415, "/": 9416, ":": 9417, "ொ": 9418, "x": 9419, "是": 9420, "一": 9421, "ழ": 9422, "உ": 9423, "ீ": 9424, ")": 9425, "3": 9426, "(": 9427, "z": 9428, "5": 9429, "在": 9430, "有": 9431, "ூ": 9432, "了": 9433, "ஆ": 9434, "4": 9435, "9": 9436, "我": 9437, "不": 9438, "!": 9439, "8": 9440, "\"": 9441, "6": 9442, "人": 9443, "q": 9444, "和": 9445, "7": 9446, "ஒ": 9447, "ஸ": 9448, "个": 9449, "这": 9450, "中": 9451, "以": 9452, "他": 9453, "为": 9454, "们": 9455, "用": 9456, "@": 9457, "大": 9458, "可": 9459, "要": 9460, "、": 9461, "到": 9462, "上": 9463, "你": 9464, "国": 9465, "能": 9466, "对": 9467, "会": 9468, "来": 9469, "ஜ": 9470, "于": 9471, "时": 9472, "生": 9473, "发": 9474, "就": 9475, "出": 9476, "多": 9477, "行": 9478, "地": 9479, "“": 9480, "分": 9481, "年": 9482, "方": 9483, "过": 9484, "”": 9485, "成": 9486, "性": 9487, "作": 9488, "法": 9489, "也": 9490, "家": 9491, "下": 9492, ";": 9493, "后": 9494, "ஏ": 9495, "本": 9496, "自": 9497, "学": 9498, "如": 9499, "ஷ": 9500, "现": 9501, "而": 9502, "说": 9503, "那": 9504, "其": 9505, "好": 9506, "得": 9507, "最": 9508, "子": 9509, "都": 9510, "经": 9511, "理": 9512, "所": 9513, "些": 9514, "进": 9515, "很": 9516, "果": 9517, "之": 9518, "面": 9519, "表": 9520, "动": 9521, "种": 9522, "定": 9523, "因": 9524, "工": 9525, "高": 9526, "但": 9527, "化": 9528, "_": 9529, "里": 9530, "新": 9531, "还": 9532, "%": 9533, "前": 9534, "看": 9535, "与": 9536, "去": 9537, "机": 9538, "同": 9539, "力": 9540, "美": 9541, "没": 9542, "者": 9543, "主": 9544, "#": 9545, "应": 9546, "实": 9547, "公": 9548, "度": 9549, "’": 9550, "合": 9551, "—": 9552, "小": 9553, "体": 9554, "开": 9555, "=": 9556, "加": 9557, "将": 9558, "文": 9559, "制": 9560, "然": 9561, "及": 9562, "提": 9563, "数": 9564, "部": 9565, "间": 9566, "天": 9567, "么": 9568, "系": 9569, "比": 9570, "重": 9571, "物": 9572, "电": 9573, "结": 9574, "并": 9575, "问": 9576, "事": 9577, "相": 9578, "~": 9579, "特": 9580, "道": 9581, "心": 9582, "样": 9583, "它": 9584, "量": 9585, "通": 9586, "关": 9587, "业": 9588, "当": 9589, "使": 9590, "着": 9591, "全": 9592, "利": 9593, "意": 9594, "点": 9595, "想": 9596, "由": 9597, "或": 9598, "明": 9599, "水": 9600, "更": 9601, "目": 9602, "基": 9603, "产": 9604, "被": 9605, "程": 9606, "斯": 9607, "从": 9608, "只": 9609, "外": 9610, "计": 9611, "起": 9612, "已": 9613, "ஹ": 9614, "位": 9615, "政": 9616, "期": 9617, "正": 9618, "件": 9619, "统": 9620, "内": 9621, "常": 9622, "此": 9623, "研": 9624, "长": 9625, "ஐ": 9626, "等": 9627, "日": 9628, "她": 9629, "入": 9630, "次": 9631, "情": 9632, "该": 9633, "保": 9634, "究": 9635, "题": 9636, "品": 9637, "无": 9638, "ஞ": 9639, "式": 9640, "信": 9641, "做": 9642, "回": 9643, "变": 9644, "原": 9645, "设": 9646, "建": 9647, "代": 9648, "型": 9649, "手": 9650, "论": 9651, "解": 9652, "管": 9653, "场": 9654, "什": 9655, "西": 9656, "接": 9657, "给": 9658, "名": 9659, "知": 9660, "金": 9661, "两": 9662, "教": 9663, "需": 9664, "第": 9665, "市": 9666, "&": 9667, "司": 9668, "平": 9669, "民": 9670, "感": 9671, "己": 9672, "展": 9673, "员": 9674, "非": 9675, "术": 9676, "车": 9677, "向": 9678, "受": 9679, "影": 9680, "月": 9681, "区": 9682, "尔": 9683, "世": 9684, "资": 9685, "色": 9686, "活": 9687, "组": 9688, "少": 9689, "把": 9690, "据": 9691, "务": 9692, "安": 9693, "三": 9694, "器": 9695, "马": 9696, "克": 9697, "流": 9698, "真": 9699, "模": 9700, "效": 9701, "持": 9702, "球": 9703, ">": 9704, "包": 9705, "类": 9706, "具": 9707, "何": 9708, "女": 9709, "价": 9710, "网": 9711, "像": 9712, "格": 9713, "示": 9714, "形": 9715, "拉": 9716, "气": 9717, "质": 9718, "吗": 9719, "任": 9720, "每": 9721, "认": 9722, "直": 9723, "+": 9724, "身": 9725, "界": 9726, "*": 9727, "放": 9728, "话": 9729, "处": 9730, "单": 9731, "运": 9732, "选": 9733, "算": 9734, "反": 9735, "让": 9736, "立": 9737, "复": 9738, "测": 9739, "收": 9740, "供": 9741, "传": 9742, "治": 9743, "试": 9744, "病": 9745, "构": 9746, "海": 9747, "交": 9748, "路": 9749, "指": 9750, "别": 9751, "服": 9752, "存": 9753, "标": 9754, "打": 9755, "造": 9756, "技": 9757, "口": 9758, "求": 9759, "元": 9760, "ஊ": 9761, "德": 9762, "导": 9763, "布": 9764, "光": 9765, "较": 9766, "近": 9767, "几": 9768, "改": 9769, "增": 9770, "且": 9771, "老": 9772, "二": 9773, "达": 9774, "率": 9775, "亚": 9776, "头": 9777, "料": 9778, "线": 9779, "至": 9780, "总": 9781, "取": 9782, "带": 9783, "國": 9784, "图": 9785, "各": 9786, "请": 9787, "验": 9788, "空": 9789, "析": 9790, "才": 9791, "候": 9792, "科": 9793, "强": 9794, "完": 9795, "先": 9796, "再": 9797, "调": 9798, "确": 9799, "支": 9800, "必": 9801, "ஓ": 9802, "报": 9803, "联": 9804, "英": 9805, "低": 9806, "显": 9807, "]": 9808, "[": 9809, "响": 9810, "太": 9811, "义": 9812, "白": 9813, "片": 9814, "许": 9815, "例": 9816, "决": 9817, "东": 9818, "装": 9819, "始": 9820, "十": 9821, "巴": 9822, "观": 9823, "今": 9824, "谢": 9825, "功": 9826, "ஃ": 9827, "素": 9828, "又": 9829, "商": 9830, "值": 9831, "语": 9832, "$": 9833, "见": 9834, "望": 9835, "神": 9836, "买": 9837, "条": 9838, "证": 9839, "告": 9840, "议": 9841, "源": 9842, "快": 9843, "项": 9844, "ஈ": 9845, "风": 9846, "采": 9847, "控": 9848, "息": 9849, "易": 9850, "约": 9851, "转": 9852, "济": 9853, "社": 9854, "友": 9855, "容": 9856, "门": 9857, "觉": 9858, "油": 9859, "星": 9860, "助": 9861, "费": 9862, "引": 9863, "步": 9864, "爱": 9865, "视": 9866, "周": 9867, "细": 9868, "花": 9869, "找": 9870, "根": 9871, "象": 9872, "准": 9873, "儿": 9874, "战": 9875, "备": 9876, "消": 9877, "府": 9878, "集": 9879, "清": 9880, "参": 9881, "整": 9882, "注": 9883, "节": 9884, "记": 9885, "·": 9886, "速": 9887, "难": 9888, "失": 9889, "投": 9890, "》": 9891, "规": 9892, "共": 9893, "字": 9894, "查": 9895, "钱": 9896, "便": 9897, "《": 9898, "言": 9899, "希": 9900, "维": 9901, "环": 9902, "态": 9903, "热": 9904, "哈": 9905, "边": 9906, "阿": 9907, "列": 9908, "這": 9909, "客": 9910, "越": 9911, "帖": 9912, "精": 9913, "离": 9914, "洲": 9915, "预": 9916, "除": 9917, "创": 9918, "考": 9919, "压": 9920, "编": 9921, "超": 9922, "际": 9923, "置": 9924, "师": 9925, "士": 9926, "致": 9927, "照": 9928, "队": 9929, "够": 9930, "权": 9931, "乐": 9932, "状": 9933, "未": 9934, "思": 9935, "首": 9936, "台": 9937, "走": 9938, "况": 9939, "城": 9940, "领": 9941, "层": 9942, "山": 9943, "罗": 9944, "则": 9945, "您": 9946, "尼": 9947, "讨": 9948, "四": 9949, "称": 9950, "切": 9951, "声": 9952, "命": 9953, "卡": 9954, "吃": 9955, "食": 9956, "介": 9957, "吧": 9958, "户": 9959, "欢": 9960, "死": 9961, "书": 9962, "专": 9963, "南": 9964, "识": 9965, "喜": 9966, "住": 9967, "游": 9968, "境": 9969, "施": 9970, "华": 9971, "疗": 9972, "北": 9973, "孩": 9974, "房": 9975, "–": 9976, "级": 9977, "配": 9978, "即": 9979, "音": 9980, "林": 9981, "案": 9982, "随": 9983, "断": 9984, "广": 9985, "策": 9986, "医": 9987, "育": 9988, "推": 9989, "述": 9990, "优": 9991, "血": 9992, "深": 9993, "土": 9994, "男": 9995, "适": 9996, "极": 9997, "续": 9998, "石": 9999, "段": 10000, "赛": 10001, "院": 10002, "普": 10003, "足": 10004, "帮": 10005, "护": 10006, "军": 10007, "号": 10008, "括": 10009, "干": 10010, "站": 10011, "载": 10012, "欧": 10013, "万": 10014, "获": 10015, "探": 10016, "降": 10017, "會": 10018, "限": 10019, "為": 10020, "早": 10021, "连": 10022, "听": 10023, "著": 10024, "另": 10025, "呢": 10026, "划": 10027, "序": 10028, "错": 10029, "换": 10030, "差": 10031, "满": 10032, "织": 10033, "远": 10034, "米": 10035, "拿": 10036, "微": 10037, "火": 10038, "波": 10039, "防": 10040, "印": 10041, "板": 10042, "演": 10043, "角": 10044, "兰": 10045, "排": 10046, "跟": 10047, "历": 10048, "份": 10049, "须": 10050, "怎": 10051, "简": 10052, "药": 10053, "评": 10054, "检": 10055, "域": 10056, "张": 10057, "個": 10058, "來": 10059, "仅": 10060, "五": 10061, "温": 10062, "却": 10063, "含": 10064, "写": 10065, "密": 10066, "减": 10067, "眼": 10068, "辑": 10069, "令": 10070, "激": 10071, "史": 10072, "往": 10073, "争": 10074, "险": 10075, "习": 10076, "企": 10077, "击": 10078, "否": 10079, "修": 10080, "似": 10081, "艺": 10082, "止": 10083, "朋": 10084, "州": 10085, "尽": 10086, "免": 10087, "款": 10088, "脑": 10089, "移": 10090, "半": 10091, "‘": 10092, "绍": 10093, "局": 10094, "团": 10095, "店": 10096, "择": 10097, "双": 10098, "射": 10099, "升": 10100, "亲": 10101, "属": 10102, "富": 10103, "皮": 10104, "益": 10105, "們": 10106, "轻": 10107, "哪": 10108, "酒": 10109, "害": 10110, "校": 10111, "红": 10112, "黑": 10113, "夫": 10114, "银": 10115, "核": 10116, "抗": 10117, "律": 10118, "伊": 10119, "念": 10120, "百": 10121, "味": 10122, "吸": 10123, "纳": 10124, "依": 10125, "官": 10126, "材": 10127, "景": 10128, "伤": 10129, "络": 10130, "均": 10131, "养": 10132, "室": 10133, "母": 10134, "承": 10135, "留": 10136, "曾": 10137, "异": 10138, "充": 10139, "某": 10140, "兴": 10141, "营": 10142, "飞": 10143, "福": 10144, "办": 10145, "终": 10146, "奥": 10147, "版": 10148, "叫": 10149, "啊": 10150, "^": 10151, "临": 10152, "势": 10153, "胞": 10154, "對": 10155, "岁": 10156, "察": 10157, "剂": 10158, "乎": 10159, "酸": 10160, "附": 10161, "底": 10162, "古": 10163, "输": 10164, "群": 10165, "众": 10166, "读": 10167, "危": 10168, "积": 10169, "举": 10170, "码": 10171, "股": 10172, "独": 10173, "破": 10174, "围": 10175, "王": 10176, "晚": 10177, "诉": 10178, "讲": 10179, "货": 10180, "软": 10181, "仍": 10182, "經": 10183, "～": 10184, "族": 10185, "索": 10186, "威": 10187, "融": 10188, "香": 10189, "缺": 10190, "久": 10191, "突": 10192, "协": 10193, "假": 10194, "刚": 10195, "负": 10196, "玩": 10197, "故": 10198, "毒": 10199, "健": 10200, "奇": 10201, "落": 10202, "康": 10203, "票": 10204, "楼": 10205, "严": 10206, "础": 10207, "录": 10208, "善": 10209, "章": 10210, "略": 10211, "初": 10212, "染": 10213, "职": 10214, "农": 10215, "哦": 10216, "卖": 10217, "待": 10218, "時": 10219, "液": 10220, "享": 10221, "患": 10222, "征": 10223, "纪": 10224, "销": 10225, "送": 10226, "范": 10227, "架": 10228, "冲": 10229, "责": 10230, "博": 10231, "警": 10232, "课": 10233, "互": 10234, "杂": 10235, "短": 10236, "绝": 10237, "概": 10238, "卫": 10239, "购": 10240, "黄": 10241, "甚": 10242, "千": 10243, "块": 10244, "画": 10245, "盟": 10246, "床": 10247, "良": 10248, "牌": 10249, "售": 10250, "\\": 10251, "居": 10252, "端": 10253, "担": 10254, "沙": 10255, "冷": 10256, "班": 10257, "歌": 10258, "谈": 10259, "靠": 10260, "树": 10261, "按": 10262, "宝": 10263, "继": 10264, "旅": 10265, "频": 10266, "|": 10267, "停": 10268, "稳": 10269, "症": 10270, "愿": 10271, "付": 10272, "植": 10273, "园": 10274, "党": 10275, "六": 10276, "革": 10277, "聚": 10278, "慢": 10279, "针": 10280, "损": 10281, "蛋": 10282, "過": 10283, "父": 10284, "拍": 10285, "阳": 10286, "座": 10287, "鱼": 10288, "紧": 10289, "戏": 10290, "穿": 10291, "固": 10292, "库": 10293, "吉": 10294, "曲": 10295, "派": 10296, "草": 10297, "汽": 10298, "混": 10299, "拥": 10300, "铁": 10301, "监": 10302, "哥": 10303, "青": 10304, "木": 10305, "透": 10306, "释": 10307, "省": 10308, "河": 10309, "背": 10310, "趣": 10311, "骨": 10312, "志": 10313, "於": 10314, "粉": 10315, "词": 10316, "套": 10317, "婚": 10318, "财": 10319, "掉": 10320, "坏": 10321, "般": 10322, "虽": 10323, "妈": 10324, "衣": 10325, "庭": 10326, "执": 10327, "虑": 10328, "补": 10329, "笑": 10330, "航": 10331, "退": 10332, "散": 10333, "伯": 10334, "灵": 10335, "误": 10336, "京": 10337, "餐": 10338, "啦": 10339, "操": 10340, "典": 10341, "轮": 10342, "刻": 10343, "谁": 10344, "雷": 10345, "肉": 10346, "坐": 10347, "巨": 10348, "季": 10349, "批": 10350, "發": 10351, "判": 10352, "{": 10353, "束": 10354, "练": 10355, "森": 10356, "現": 10357, "}": 10358, "圣": 10359, "厂": 10360, "贵": 10361, "礼": 10362, "痛": 10363, "塞": 10364, "托": 10365, "杀": 10366, "键": 10367, "沒": 10368, "還": 10369, "困": 10370, "答": 10371, "怕": 10372, "顾": 10373, "顿": 10374, "剧": 10375, "弹": 10376, "左": 10377, "佛": 10378, "静": 10379, "牙": 10380, "储": 10381, "诺": 10382, "估": 10383, "塔": 10384, "屋": 10385, "牛": 10386, "疑": 10387, "氧": 10388, "夜": 10389, "丽": 10390, "避": 10391, "遇": 10392, "伦": 10393, "船": 10394, "劳": 10395, "港": 10396, "叶": 10397, "咯": 10398, "智": 10399, "後": 10400, "肯": 10401, "钟": 10402, "實": 10403, "访": 10404, "姆": 10405, "阻": 10406, "阶": 10407, "矿": 10408, "武": 10409, "占": 10410, "脚": 10411, "`": 10412, "宣": 10413, "亿": 10414, "膜": 10415, "菌": 10416, "寻": 10417, "闻": 10418, "朗": 10419, "钢": 10420, "糖": 10421, "急": 10422, "救": 10423, "岛": 10424, "盘": 10425, "<": 10426, "缩": 10427, "右": 10428, "坦": 10429, "馆": 10430, "跑": 10431, "松": 10432, "毛": 10433, "苏": 10434, "佳": 10435, "俄": 10436, "席": 10437, "扩": 10438, "描": 10439, "永": 10440, "洗": 10441, "幸": 10442, "倒": 10443, "顶": 10444, "將": 10445, "甲": 10446, "曼": 10447, "私": 10448, "培": 10449, "盖": 10450, "硬": 10451, "追": 10452, "露": 10453, "竞": 10454, "龙": 10455, "苦": 10456, "恩": 10457, "播": 10458, "纸": 10459, "萨": 10460, "训": 10461, "「": 10462, "亡": 10463, "狗": 10464, "符": 10465, "朝": 10466, "册": 10467, "暴": 10468, "尤": 10469, "镜": 10470, "脱": 10471, "迪": 10472, "委": 10473, "税": 10474, "勒": 10475, "障": 10476, "罪": 10477, "村": 10478, "說": 10479, "努": 10480, "動": 10481, "拟": 10482, "恐": 10483, "」": 10484, "菜": 10485, "措": 10486, "额": 10487, "犯": 10488, "亮": 10489, "八": 10490, "街": 10491, "粒": 10492, "迎": 10493, "丝": 10494, "借": 10495, "歐": 10496, "径": 10497, "恶": 10498, "童": 10499, "债": 10500, "币": 10501, "筑": 10502, "弟": 10503, "贝": 10504, "裂": 10505, "胶": 10506, "坡": 10507, "登": 10508, "汉": 10509, "衡": 10510, "機": 10511, "麻": 10512, "刺": 10513, "促": 10514, "當": 10515, "冰": 10516, "句": 10517, "問": 10518, "宜": 10519, "弱": 10520, "藏": 10521, "签": 10522, "封": 10523, "沉": 10524, "樣": 10525, "延": 10526, "滑": 10527, "坚": 10528, "败": 10529, "鼠": 10530, "爆": 10531, "综": 10532, "翻": 10533, "洛": 10534, "挑": 10535, "洋": 10536, "呼": 10537, "資": 10538, "睡": 10539, "懂": 10540, "泛": 10541, "⁠": 10542, "烟": 10543, "胜": 10544, "麦": 10545, "零": 10546, "乱": 10547, "岩": 10548, "莱": 10549, "濟": 10550, "伴": 10551, "脉": 10552, "怪": 10553, "鲜": 10554, "摩": 10555, "怀": 10556, "若": 10557, "顺": 10558, "震": 10559, "熟": 10560, "彩": 10561, "归": 10562, "媒": 10563, "野": 10564, "途": 10565, "疾": 10566, "迷": 10567, "埃": 10568, "摄": 10569, "長": 10570, "疫": 10571, "申": 10572, "李": 10573, "鲁": 10574, "云": 10575, "耶": 10576, "审": 10577, "燃": 10578, "孔": 10579, "妇": 10580, "贴": 10581, "脂": 10582, "笔": 10583, "遗": 10584, "灯": 10585, "守": 10586, "污": 10587, "诊": 10588, "余": 10589, "触": 10590, "開": 10591, "授": 10592, "奖": 10593, "雨": 10594, "旧": 10595, "舞": 10596, "休": 10597, "偏": 10598, "奶": 10599, "與": 10600, "惊": 10601, "绿": 10602, "梦": 10603, "七": 10604, "阵": 10605, "折": 10606, "耳": 10607, "­": 10608, "距": 10609, "宗": 10610, "浪": 10611, "麼": 10612, "喝": 10613, "烈": 10614, "邮": 10615, "癌": 10616, "敏": 10617, "丰": 10618, "瑞": 10619, "贸": 10620, "替": 10621, "陷": 10622, "仪": 10623, "進": 10624, "並": 10625, "攻": 10626, "页": 10627, "逐": 10628, "译": 10629, "耐": 10630, "缓": 10631, "启": 10632, "烧": 10633, "帝": 10634, "應": 10635, "艾": 10636, "斗": 10637, "江": 10638, "楚": 10639, "茶": 10640, "莫": 10641, "杰": 10642, "圆": 10643, "無": 10644, "田": 10645, "盛": 10646, "雪": 10647, "箱": 10648, "陆": 10649, "脸": 10650, "跳": 10651, "九": 10652, "午": 10653, "竟": 10654, "瓦": 10655, "诗": 10656, "副": 10657, "振": 10658, "汇": 10659, "磁": 10660, "忙": 10661, "菲": 10662, "幅": 10663, "潜": 10664, "雅": 10665, "既": 10666, "订": 10667, "禁": 10668, "堂": 10669, "肌": 10670, "暗": 10671, "隔": 10672, "丁": 10673, "鸡": 10674, "業": 10675, "默": 10676, "贷": 10677, "杯": 10678, "夏": 10679, "晶": 10680, "遭": 10681, "尚": 10682, "谷": 10683, "泰": 10684, "蓝": 10685, "•": 10686, "毕": 10687, "尺": 10688, "宽": 10689, "链": 10690, "租": 10691, "映": 10692, "蒂": 10693, "末": 10694, "谱": 10695, "倍": 10696, "闭": 10697, "虫": 10698, "予": 10699, "炎": 10700, "池": 10701, "迫": 10702, "丹": 10703, "肤": 10704, "详": 10705, "體": 10706, "唯": 10707, "湖": 10708, "饭": 10709, "冠": 10710, "纤": 10711, "涉": 10712, "裁": 10713, "碳": 10714, "凝": 10715, "荷": 10716, "關": 10717, "辆": 10718, "拜": 10719, "渐": 10720, "献": 10721, "塑": 10722, "饮": 10723, "韩": 10724, "種": 10725, "唱": 10726, "央": 10727, "學": 10728, "題": 10729, "乳": 10730, "繁": 10731, "弗": 10732, "間": 10733, "忘": 10734, "挥": 10735, "纯": 10736, "ௌ": 10737, "抑": 10738, "蒙": 10739, "档": 10740, "兵": 10741, "爸": 10742, "询": 10743, "督": 10744, "镇": 10745, "桥": 10746, "巧": 10747, "該": 10748, "瘤": 10749, "遍": 10750, "點": 10751, "旋": 10752, "灰": 10753, "肥": 10754, "春": 10755, "醒": 10756, "缘": 10757, "產": 10758, "纽": 10759, "允": 10760, "幕": 10761, "饰": 10762, "厚": 10763, "抵": 10764, "鼓": 10765, "從": 10766, "尾": 10767, "仿": 10768, "場": 10769, "敢": 10770, "弃": 10771, "泡": 10772, "招": 10773, "伙": 10774, "磨": 10775, "虚": 10776, "隐": 10777, "毫": 10778, "井": 10779, "篇": 10780, "呵": 10781, "宫": 10782, "鸟": 10783, "溶": 10784, "趋": 10785, "妹": 10786, "侧": 10787, "抽": 10788, "灾": 10789, "插": 10790, "馬": 10791, "梅": 10792, "戴": 10793, "赞": 10794, "盐": 10795, "龄": 10796, "赖": 10797, "徒": 10798, "烦": 10799, "颜": 10800, "炸": 10801, "添": 10802, "卷": 10803, "搜": 10804, "援": 10805, "净": 10806, "洞": 10807, "湾": 10808, "呈": 10809, "窗": 10810, "脏": 10811, "驱": 10812, "侵": 10813, "壁": 10814, "尝": 10815, "跌": 10816, "荣": 10817, "抱": 10818, "掌": 10819, "邦": 10820, "殊": 10821, "肿": 10822, "豆": 10823, "废": 10824, "玛": 10825, "圈": 10826, "刀": 10827, "搞": 10828, "選": 10829, "煤": 10830, "偶": 10831, "讯": 10832, "墙": 10833, "亞": 10834, "尿": 10835, "弄": 10836, "泥": 10837, "衰": 10838, "赢": 10839, "變": 10840, "薄": 10841, "函": 10842, "導": 10843, "励": 10844, "累": 10845, "洁": 10846, "浓": 10847, "潮": 10848, "讓": 10849, "峰": 10850, "腐": 10851, "胡": 10852, "轴": 10853, "阅": 10854, "漫": 10855, "迹": 10856, "循": 10857, "墨": 10858, "旁": 10859, "诚": 10860, "祝": 10861, "內": 10862, "喷": 10863, "乘": 10864, "魔": 10865, "焦": 10866, "尊": 10867, "仔": 10868, "隆": 10869, "澳": 10870, "捕": 10871, "岸": 10872, "驾": 10873, "陈": 10874, "凯": 10875, "猫": 10876, "恢": 10877, "數": 10878, "耗": 10879, "残": 10880, "雄": 10881, "框": 10882, "穆": 10883, "妻": 10884, "敦": 10885, "乡": 10886, "秘": 10887, "践": 10888, "酶": 10889, "胎": 10890, "湿": 10891, "肝": 10892, "羊": 10893, "乏": 10894, "忆": 10895, "皇": 10896, "乙": 10897, "搭": 10898, "枪": 10899, "戰": 10900, "扰": 10901, "宁": 10902, "姐": 10903, "扣": 10904, "拒": 10905, "润": 10906, "舒": 10907, "谓": 10908, "倾": 10909, "惯": 10910, "灭": 10911, "涂": 10912, "旦": 10913, "填": 10914, "厅": 10915, "玻": 10916, "粘": 10917, "署": 10918, "迅": 10919, "袋": 10920, "區": 10921, "券": 10922, "結": 10923, "決": 10924, "統": 10925, "杆": 10926, "堆": 10927, "摆": 10928, "沿": 10929, "扎": 10930, "跨": 10931, "锁": 10932, "乌": 10933, "迟": 10934, "悲": 10935, "肠": 10936, "給": 10937, "權": 10938, "帕": 10939, "碎": 10940, "握": 10941, "颗": 10942, "乔": 10943, "汤": 10944, "腺": 10945, "薪": 10946, "纹": 10947, "庆": 10948, "秀": 10949, "扫": 10950, "認": 10951, "兄": 10952, "阐": 10953, "涨": 10954, "阴": 10955, "狂": 10956, "覆": 10957, "話": 10958, "寸": 10959, "滤": 10960, "鞋": 10961, "葡": 10962, "鬼": 10963, "碍": 10964, "價": 10965, "苗": 10966, "義": 10967, "員": 10968, "總": 10969, "械": 10970, "兩": 10971, "址": 10972, "伟": 10973, "咖": 10974, "绩": 10975, "伸": 10976, "殖": 10977, "昨": 10978, "贫": 10979, "寄": 10980, "沃": 10981, "柔": 10982, "鉴": 10983, "诸": 10984, "é": 10985, "齐": 10986, "削": 10987, "聯": 10988, "酱": 10989, "孕": 10990, "胁": 10991, "偷": 10992, "炉": 10993, "萄": 10994, "逃": 10995, "淡": 10996, "递": 10997, "棒": 10998, "忽": 10999, "赶": 11000, "肺": 11001, "踪": 11002, "宾": 11003, "議": 11004, "璃": 11005, "浮": 11006, "抓": 11007, "坛": 11008, "務": 11009, "赫": 11010, "爾": 11011, "辛": 11012, "啡": 11013, "婆": 11014, "玉": 11015, "柱": 11016, "刷": 11017, "恋": 11018, "糊": 11019, "猪": 11020, "赚": 11021, "毁": 11022, "汗": 11023, "祖": 11024, "漂": 11025, "桌": 11026, "娜": 11027, "睛": 11028, "暖": 11029, "剩": 11030, "刑": 11031, "览": 11032, "嘴": 11033, "撒": 11034, "截": 11035, "粗": 11036, "梁": 11037, "袭": 11038, "屏": 11039, "黎": 11040, "領": 11041, "返": 11042, "邻": 11043, "浆": 11044, "醇": 11045, "拖": 11046, "】": 11047, "闪": 11048, "珠": 11049, "嗎": 11050, "許": 11051, "敌": 11052, "胸": 11053, "冬": 11054, "轨": 11055, "撞": 11056, "惠": 11057, "糕": 11058, "县": 11059, "強": 11060, "扬": 11061, "漏": 11062, "氏": 11063, "翰": 11064, "勇": 11065, "珍": 11066, "冒": 11067, "【": 11068, "割": 11069, "暂": 11070, "胆": 11071, "钻": 11072, "彼": 11073, "偿": 11074, "論": 11075, "難": 11076, "骗": 11077, "計": 11078, "怖": 11079, "忍": 11080, "豪": 11081, "剪": 11082, "壳": 11083, "紫": 11084, "横": 11085, "绕": 11086, "灌": 11087, "腔": 11088, "宿": 11089, "甘": 11090, "螺": 11091, "瓶": 11092, "诱": 11093, "迈": 11094, "壤": 11095, "怒": 11096, "腹": 11097, "摇": 11098, "吹": 11099, "際": 11100, "宇": 11101, "尖": 11102, "囊": 11103, "挂": 11104, "裡": 11105, "別": 11106, "甜": 11107, "堡": 11108, "忧": 11109, "催": 11110, "達": 11111, "凡": 11112, "铜": 11113, "敬": 11114, "绪": 11115, "幾": 11116, "匹": 11117, "幼": 11118, "雇": 11119, "苹": 11120, "胀": 11121, "霍": 11122, "虎": 11123, "腿": 11124, "罢": 11125, "齿": 11126, "電": 11127, "穷": 11128, "°": 11129, "佩": 11130, "犹": 11131, "東": 11132, "鼻": 11133, "唐": 11134, "逊": 11135, "欲": 11136, "沟": 11137, "奋": 11138, "滴": 11139, "瓜": 11140, "兹": 11141, "確": 11142, "兼": 11143, "骑": 11144, "滋": 11145, "秋": 11146, "赏": 11147, "幻": 11148, "聊": 11149, "約": 11150, "箭": 11151, "莉": 11152, "孤": 11153, "舍": 11154, "哲": 11155, "悉": 11156, "亦": 11157, "糟": 11158, "绘": 11159, "胃": 11160, "川": 11161, "诞": 11162, "缝": 11163, "車": 11164, "碰": 11165, "违": 11166, "夺": 11167, "愈": 11168, "廉": 11169, "逆": 11170, "驶": 11171, "俗": 11172, "腊": 11173, "翼": 11174, "旗": 11175, "肾": 11176, "麽": 11177, "氣": 11178, "炼": 11179, "罚": 11180, "滚": 11181, "嘛": 11182, "叙": 11183, "寿": 11184, "硫": 11185, "砂": 11186, "氨": 11187, "淋": 11188, "俱": 11189, "莎": 11190, "妙": 11191, "尘": 11192, "夹": 11193, "斑": 11194, "恒": 11195, "矩": 11196, "網": 11197, "丢": 11198, "桑": 11199, "秒": 11200, "蚀": 11201, "奏": 11202, "蒸": 11203, "迁": 11204, "買": 11205, "扮": 11206, "貌": 11207, "辅": 11208, "杜": 11209, "赤": 11210, "梯": 11211, "届": 11212, "恰": 11213, "逻": 11214, "欣": 11215, "伍": 11216, "旨": 11217, "報": 11218, "纷": 11219, "串": 11220, "娘": 11221, "擦": 11222, "袖": 11223, "爭": 11224, "斜": 11225, "謝": 11226, "捷": 11227, "揭": 11228, "誉": 11229, "泽": 11230, "婴": 11231, "銀": 11232, "盒": 11233, "辩": 11234, "弯": 11235, "盆": 11236, "宏": 11237, "槟": 11238, "渗": 11239, "遵": 11240, "焊": 11241, "仰": 11242, "籍": 11243, "帶": 11244, "庄": 11245, "闲": 11246, "烯": 11247, "呀": 11248, "挤": 11249, "羅": 11250, "泳": 11251, "搬": 11252, "組": 11253, "預": 11254, "烂": 11255, "則": 11256, "眠": 11257, "續": 11258, "召": 11259, "彻": 11260, "哭": 11261, "債": 11262, "蛮": 11263, "辨": 11264, "郁": 11265, "琴": 11266, "😂": 11267, "刊": 11268, "仁": 11269, "爬": 11270, "稀": 11271, "寒": 11272, "纵": 11273, "厌": 11274, "刘": 11275, "垂": 11276, "酯": 11277, "★": 11278, "腰": 11279, "熊": 11280, "昂": 11281, "账": 11282, "谐": 11283, "卢": 11284, "圾": 11285, "垃": 11286, "冻": 11287, "辞": 11288, "渡": 11289, "蘭": 11290, "夠": 11291, "芬": 11292, "贡": 11293, "黨": 11294, "惜": 11295, "抢": 11296, "捐": 11297, "疲": 11298, "铝": 11299, "噪": 11300, "跃": 11301, "須": 11302, "頭": 11303, "風": 11304, "凭": 11305, "颈": 11306, "番": 11307, "蓄": 11308, "費": 11309, "浅": 11310, "標": 11311, "牧": 11312, "磷": 11313, "谋": 11314, "類": 11315, "硅": 11316, "棉": 11317, "稍": 11318, "厉": 11319, "炮": 11320, "觀": 11321, "錢": 11322, "悬": 11323, "慧": 11324, "晨": 11325, "杨": 11326, "請": 11327, "盾": 11328, "妮": 11329, "铺": 11330, "魂": 11331, "肪": 11332, "陶": 11333, "姓": 11334, "貨": 11335, "狱": 11336, "見": 11337, "邀": 11338, "荡": 11339, "饱": 11340, "愛": 11341, "險": 11342, "浦": 11343, "辐": 11344, "泵": 11345, "洪": 11346, "阀": 11347, "處": 11348, "卵": 11349, "規": 11350, "丈": 11351, "胺": 11352, "拼": 11353, "據": 11354, "戒": 11355, "況": 11356, "猜": 11357, "軍": 11358, "幣": 11359, "饼": 11360, "仙": 11361, "氢": 11362, "董": 11363, "骤": 11364, "韦": 11365, "蜜": 11366, "陪": 11367, "拔": 11368, "丧": 11369, "拓": 11370, "茨": 11371, "抛": 11372, "宅": 11373, "碱": 11374, "挖": 11375, "粮": 11376, "爽": 11377, "苯": 11378, "孙": 11379, "構": 11380, "勃": 11381, "芯": 11382, "津": 11383, "覺": 11384, "氯": 11385, "設": 11386, "較": 11387, "埋": 11388, "呆": 11389, "枝": 11390, "萬": 11391, "涵": 11392, "浸": 11393, "锋": 11394, "烤": 11395, "疼": 11396, "嗯": 11397, "盈": 11398, "轉": 11399, "響": 11400, "壮": 11401, "汁": 11402, "忠": 11403, "扭": 11404, "煮": 11405, "丙": 11406, "伏": 11407, "戈": 11408, "運": 11409, "厨": 11410, "慈": 11411, "裤": 11412, "泉": 11413, "極": 11414, "盗": 11415, "押": 11416, "浴": 11417, "雕": 11418, "臂": 11419, "荐": 11420, "肩": 11421, "摸": 11422, "朵": 11423, "篮": 11424, "門": 11425, "猎": 11426, "條": 11427, "桶": 11428, "携": 11429, "−": 11430, "荒": 11431, "怨": 11432, "邊": 11433, "卻": 11434, "帐": 11435, "擎": 11436, "遥": 11437, "膨": 11438, "桃": 11439, "叉": 11440, "氮": 11441, "蛇": 11442, "蜂": 11443, "雾": 11444, "傻": 11445, "摘": 11446, "拆": 11447, "漆": 11448, "歧": 11449, "奉": 11450, "猛": 11451, "疯": 11452, "株": 11453, "匀": 11454, "撑": 11455, "財": 11456, "凉": 11457, "調": 11458, "泪": 11459, "稣": 11460, "锅": 11461, "泄": 11462, "驻": 11463, "矛": 11464, "罐": 11465, "狼": 11466, "瑟": 11467, "傳": 11468, "叠": 11469, "顯": 11470, "視": 11471, "吓": 11472, "惧": 11473, "嘉": 11474, "姻": 11475, "帽": 11476, "瓷": 11477, "柜": 11478, "铸": 11479, "脆": 11480, "赋": 11481, "滩": 11482, "崩": 11483, "闹": 11484, "渴": 11485, "減": 11486, "欺": 11487, "惑": 11488, "君": 11489, "單": 11490, "剑": 11491, "椅": 11492, "柏": 11493, "纱": 11494, "栏": 11495, "勤": 11496, "耀": 11497, "酷": 11498, "僅": 11499, "筹": 11500, "華": 11501, "粹": 11502, "證": 11503, "胖": 11504, "竹": 11505, "删": 11506, "圖": 11507, "撤": 11508, "逼": 11509, "槽": 11510, "聘": 11511, "眾": 11512, "艰": 11513, "姿": 11514, "錯": 11515, "奈": 11516, "寓": 11517, "吻": 11518, "識": 11519, "吐": 11520, "劃": 11521, "恨": 11522, "C": 11523, "聪": 11524, "舉": 11525, "弥": 11526, "臭": 11527, "醉": 11528, "項": 11529, "仓": 11530, "髓": 11531, "炭": 11532, "踏": 11533, "稻": 11534, "劲": 11535, "欠": 11536, "罕": 11537, "娃": 11538, "贯": 11539, "創": 11540, "阔": 11541, "擔": 11542, "獲": 11543, "勢": 11544, "尸": 11545, "贪": 11546, "脊": 11547, "牢": 11548, "乃": 11549, "纠": 11550, "辣": 11551, "哇": 11552, "遠": 11553, "宙": 11554, "協": 11555, "辉": 11556, "歉": 11557, "喊": 11558, "試": 11559, "赔": 11560, "橡": 11561, "─": 11562, "愤": 11563, "绑": 11564, "疏": 11565, "晰": 11566, "赌": 11567, "吵": 11568, "朱": 11569, "骂": 11570, "晓": 11571, "隨": 11572, "咨": 11573, "滞": 11574, "術": 11575, "姑": 11576, "岗": 11577, "挺": 11578, "痕": 11579, "剖": 11580, "吊": 11581, "丑": 11582, "牵": 11583, "芝": 11584, "拳": 11585, "稅": 11586, "舰": 11587, "隙": 11588, "妆": 11589, "維": 11590, "歡": 11591, "酮": 11592, "炒": 11593, "筛": 11594, "犬": 11595, "娱": 11596, "幽": 11597, "宠": 11598, "燥": 11599, "慎": 11600, "裔": 11601, "辈": 11602, "屈": 11603, "巫": 11604, "霉": 11605, "缸": 11606, "兽": 11607, "惨": 11608, "砖": 11609, "柴": 11610, "伪": 11611, "榜": 11612, "溃": 11613, "慕": 11614, "罩": 11615, "崇": 11616, "喂": 11617, "擊": 11618, "堪": 11619, "酵": 11620, "琳": 11621, "嵌": 11622, "廷": 11623, "蔬": 11624, "ω": 11625, "衬": 11626, "怜": 11627, "兔": 11628, "幫": 11629, "扇": 11630, "掘": 11631, "護": 11632, "張": 11633, "係": 11634, "昆": 11635, "叛": 11636, "吞": 11637, "亏": 11638, "劣": 11639, "椎": 11640, "羽": 11641, "叔": 11642, "挡": 11643, "纺": 11644, "熔": 11645, "紀": 11646, "钙": 11647, "筒": 11648, "漠": 11649, "腾": 11650, "筋": 11651, "噢": 11652, "宪": 11653, "掩": 11654, "奴": 11655, "嚴": 11656, "瘦": 11657, "爵": 11658, "沫": 11659, "奔": 11660, "歷": 11661, "肚": 11662, "捉": 11663, "卓": 11664, "牲": 11665, "恼": 11666, "咬": 11667, "寺": 11668, "竭": 11669, "伐": 11670, "垫": 11671, "拨": 11672, "備": 11673, "斷": 11674, "畅": 11675, "織": 11676, "愉": 11677, "參": 11678, "嫌": 11679, "恭": 11680, "醫": 11681, "爷": 11682, "郎": 11683, "锻": 11684, "悔": 11685, "踢": 11686, "桩": 11687, "離": 11688, "記": 11689, "凸": 11690, "契": 11691, "淀": 11692, "膏": 11693, "級": 11694, "妥": 11695, "役": 11696, "旺": 11697, "裙": 11698, "扑": 11699, "終": 11700, "坝": 11701, "芳": 11702, "衍": 11703, "墓": 11704, "馈": 11705, "邪": 11706, "絕": 11707, "孟": 11708, "膀": 11709, "夸": 11710, "傲": 11711, "慰": 11712, "億": 11713, "锦": 11714, "丘": 11715, "帅": 11716, "扶": 11717, "歇": 11718, "泊": 11719, "盲": 11720, "儘": 11721, "烷": 11722, "谨": 11723, "斥": 11724, "質": 11725, "匙": 11726, "▼": 11727, "钠": 11728, "御": 11729, "亨": 11730, "稱": 11731, "胰": 11732, "團": 11733, "準": 11734, "採": 11735, "凌": 11736, "卜": 11737, "霸": 11738, "師": 11739, "窄": 11740, "專": 11741, "侣": 11742, "碗": 11743, "宋": 11744, "興": 11745, "嫩": 11746, "滿": 11747, "钉": 11748, "祭": 11749, "祷": 11750, "莲": 11751, "酬": 11752, "庙": 11753, "旱": 11754, "披": 11755, "芽": 11756, "氛": 11757, "飘": 11758, "抹": 11759, "兒": 11760, "渣": 11761, "仇": 11762, "遮": 11763, "涌": 11764, "貿": 11765, "卧": 11766, "擇": 11767, "浏": 11768, "愚": 11769, "庞": 11770, "態": 11771, "負": 11772, "環": 11773, "×": 11774, "喔": 11775, "敲": 11776, "眉": 11777, "詹": 11778, "锡": 11779, "渔": 11780, "肢": 11781, "饲": 11782, "魅": 11783, "緊": 11784, "巡": 11785, "懒": 11786, "镀": 11787, "皆": 11788, "铅": 11789, "悦": 11790, "贾": 11791, "吨": 11792, "艇": 11793, "笼": 11794, "淘": 11795, "绳": 11796, "責": 11797, "稿": 11798, "願": 11799, "饿": 11800, "杉": 11801, "鲍": 11802, "泌": 11803, "舌": 11804, "钥": 11805, "晋": 11806, "涯": 11807, "談": 11808, "樂": 11809, "連": 11810, "吁": 11811, "巢": 11812, "栓": 11813, "吴": 11814, "燕": 11815, "狭": 11816, "瞬": 11817, "繼": 11818, "虾": 11819, "锈": 11820, "狮": 11821, "赠": 11822, "卸": 11823, "換": 11824, "甸": 11825, "抬": 11826, "兑": 11827, "壓": 11828, "悠": 11829, "獨": 11830, "棋": 11831, "阁": 11832, "莓": 11833, "躲": 11834, "躺": 11835, "晒": 11836, "剥": 11837, "蜡": 11838, "绵": 11839, "柯": 11840, "椒": 11841, "宴": 11842, "復": 11843, "倡": 11844, "铃": 11845, "蹈": 11846, "劫": 11847, "颇": 11848, "胚": 11849, "讼": 11850, "哀": 11851, "坎": 11852, "羞": 11853, "講": 11854, "祈": 11855, "瓣": 11856, "裸": 11857, "窝": 11858, "锌": 11859, "廣": 11860, "笨": 11861, "遊": 11862, "痴": 11863, "臨": 11864, "裝": 11865, "聲": 11866, "氟": 11867, "辱": 11868, "佣": 11869, "儲": 11870, "廊": 11871, "書": 11872, "聽": 11873, "喻": 11874, "耦": 11875, "狀": 11876, "穩": 11877, "穴": 11878, "屁": 11879, "峡": 11880, "艘": 11881, "渠": 11882, "鹿": 11883, "堵": 11884, "奧": 11885, "履": 11886, "祥": 11887, "裕": 11888, "昏": 11889, "雖": 11890, "傅": 11891, "嫁": 11892, "葬": 11893, "丛": 11894, "衝": 11895, "膝": 11896, "猴": 11897, "耕": 11898, "δ": 11899, "衫": 11900, "妨": 11901, "砍": 11902, "納": 11903, "陀": 11904, "秩": 11905, "蚊": 11906, "酚": 11907, "轧": 11908, "攀": 11909, "弧": 11910, "滥": 11911, "荧": 11912, "線": 11913, "缅": 11914, "驗": 11915, "巾": 11916, "潘": 11917, "侦": 11918, "黏": 11919, "枚": 11920, "钮": 11921, "劝": 11922, "凶": 11923, "裹": 11924, "厕": 11925, "舱": 11926, "鸭": 11927, "窃": 11928, "忌": 11929, "脾": 11930, "锐": 11931, "唇": 11932, "咩": 11933, "監": 11934, "珊": 11935, "棕": 11936, "霜": 11937, "涡": 11938, "瑰": 11939, "→": 11940, "缆": 11941, "栽": 11942, "佐": 11943, "喉": 11944, "玫": 11945, "鸣": 11946, "唤": 11947, "龟": 11948, "輕": 11949, "拌": 11950, "誓": 11951, "斤": 11952, "藉": 11953, "賣": 11954, "晕": 11955, "蠢": 11956, "闷": 11957, "酰": 11958, "弦": 11959, "️": 11960, "兆": 11961, "丸": 11962, "迭": 11963, "熱": 11964, "谎": 11965, "轰": 11966, "鹅": 11967, "咒": 11968, "衷": 11969, "評": 11970, "逛": 11971, "慌": 11972, "柳": 11973, "溢": 11974, "叹": 11975, "惩": 11976, "辦": 11977, "坑": 11978, "樓": 11979, "臣": 11980, "滨": 11981, "俩": 11982, "猩": 11983, "逝": 11984, "啤": 11985, "僵": 11986, "夕": 11987, "擁": 11988, "硝": 11989, "扔": 11990, "贺": 11991, "殿": 11992, "溪": 11993, "琼": 11994, "☆": 11995, "隊": 11996, "搅": 11997, "敗": 11998, "藻": 11999, "郊": 12000, "壞": 12001, "钓": 12002, "颁": 12003, "′": 12004, "勘": 12005, "祸": 12006, "寂": 12007, "α": 12008, "劇": 12009, "碑": 12010, "£": 12011, "抚": 12012, "拯": 12013, "摧": 12014, "厘": 12015, "仲": 12016, "缠": 12017, "勞": 12018, "諾": 12019, "肖": 12020, "赐": 12021, "雌": 12022, "殺": 12023, "翅": 12024, "挣": 12025, "嘻": 12026, "競": 12027, "親": 12028, "翁": 12029, "屠": 12030, "灣": 12031, "厦": 12032, "悄": 12033, "肃": 12034, "慮": 12035, "棵": 12036, "圳": 12037, "郑": 12038, "谊": 12039, "饥": 12040, "韧": 12041, "薯": 12042, "適": 12043, "測": 12044, "茄": 12045, "萝": 12046, "刮": 12047, "枯": 12048, "礎": 12049, "蝶": 12050, "曝": 12051, "隧": 12052, "秦": 12053, "谅": 12054, "―": 12055, "牺": 12056, "悟": 12057, "療": 12058, "逢": 12059, "雙": 12060, "赵": 12061, "勾": 12062, "鹰": 12063, "怡": 12064, "矮": 12065, "號": 12066, "栅": 12067, "剛": 12068, "陌": 12069, "佬": 12070, "塌": 12071, "钩": 12072, "畜": 12073, "挫": 12074, "苍": 12075, "讶": 12076, "製": 12077, "磅": 12078, "凤": 12079, "崛": 12080, "疆": 12081, "皱": 12082, "蔽": 12083, "貸": 12084, "碟": 12085, "缴": 12086, "隶": 12087, "讽": 12088, "語": 12089, "贩": 12090, "憾": 12091, "節": 12092, "梗": 12093, "挪": 12094, "藥": 12095, "岭": 12096, "徐": 12097, "葛": 12098, "逮": 12099, "朴": 12100, "妳": 12101, "厄": 12102, "禽": 12103, "虐": 12104, "歲": 12105, "層": 12106, "凹": 12107, "喘": 12108, "蕾": 12109, "簡": 12110, "執": 12111, "硕": 12112, "戲": 12113, "豫": 12114, "乾": 12115, "戚": 12116, "傷": 12117, "卑": 12118, "職": 12119, "绒": 12120, "儒": 12121, "菊": 12122, "迄": 12123, "醋": 12124, "伽": 12125, "橙": 12126, "洒": 12127, "〉": 12128, "討": 12129, "贬": 12130, "咪": 12131, "ü": 12132, "毯": 12133, "锥": 12134, "營": 12135, "苷": 12136, "寨": 12137, "桂": 12138, "遣": 12139, "姜": 12140, "擴": 12141, "艳": 12142, "購": 12143, "摊": 12144, "陵": 12145, "颠": 12146, "額": 12147, "皂": 12148, "矶": 12149, "優": 12150, "芭": 12151, "雀": 12152, "彭": 12153, "募": 12154, "挽": 12155, "藤": 12156, "弊": 12157, "匆": 12158, "坠": 12159, "烘": 12160, "紅": 12161, "習": 12162, "畏": 12163, "拾": 12164, "奢": 12165, "π": 12166, "惡": 12167, "帆": 12168, "撕": 12169, "腦": 12170, "踩": 12171, "醛": 12172, "寫": 12173, "沈": 12174, "衛": 12175, "伞": 12176, "酿": 12177, "驳": 12178, "蕴": 12179, "肽": 12180, "矢": 12181, "惹": 12182, "俊": 12183, "溯": 12184, "萧": 12185, "酪": 12186, "虹": 12187, "葱": 12188, "遏": 12189, "萎": 12190, "烹": 12191, "撰": 12192, "養": 12193, "徵": 12194, "溫": 12195, "á": 12196, "骚": 12197, "狐": 12198, "芒": 12199, "叻": 12200, "诈": 12201, "棍": 12202, "柄": 12203, "搏": 12204, "翔": 12205, "補": 12206, "圍": 12207, "畸": 12208, "捞": 12209, "抄": 12210, "拱": 12211, "溜": 12212, "喇": 12213, "屑": 12214, "梳": 12215, "镑": 12216, "蔓": 12217, "倫": 12218, "褐": 12219, "昌": 12220, "農": 12221, "縮": 12222, "拘": 12223, "颖": 12224, "訴": 12225, "韵": 12226, "扁": 12227, "抖": 12228, "蓬": 12229, "骄": 12230, "咽": 12231, "積": 12232, "仆": 12233, "弓": 12234, "惟": 12235, "浩": 12236, "宰": 12237, "誰": 12238, "钾": 12239, "汀": 12240, "焰": 12241, "仑": 12242, "咳": 12243, "冈": 12244, "涅": 12245, "奸": 12246, "浇": 12247, "萃": 12248, "魏": 12249, "垒": 12250, "颅": 12251, "蚁": 12252, "誤": 12253, "脅": 12254, "贮": 12255, "🤡": 12256, "妖": 12257, "寶": 12258, "咧": 12259, "倦": 12260, "蟹": 12261, "鮮": 12262, "聞": 12263, "貼": 12264, "耻": 12265, "è": 12266, "臘": 12267, "蕉": 12268, "摔": 12269, "黃": 12270, "侯": 12271, "勝": 12272, "擅": 12273, "郭": 12274, "奠": 12275, "栖": 12276, "亂": 12277, "枕": 12278, "咱": 12279, "異": 12280, "壶": 12281, "貧": 12282, "嘲": 12283, "枢": 12284, "薩": 12285, "贤": 12286, "鲸": 12287, "爪": 12288, "栋": 12289, "痒": 12290, "顽": 12291, "奎": 12292, "疹": 12293, "蛛": 12294, "戶": 12295, "煎": 12296, "狠": 12297, "芦": 12298, "茎": 12299, "巷": 12300, "咸": 12301, "孢": 12302, "貴": 12303, "郡": 12304, "掺": 12305, "坞": 12306, "喵": 12307, "夷": 12308, "钛": 12309, "寡": 12310, "涛": 12311, "垄": 12312, "颤": 12313, "頓": 12314, "乖": 12315, "浙": 12316, "屬": 12317, "釋": 12318, "镁": 12319, "尋": 12320, "靶": 12321, "峻": 12322, "脹": 12323, "烃": 12324, "煌": 12325, "僚": 12326, "凑": 12327, "驰": 12328, "λ": 12329, "脫": 12330, "邓": 12331, "赴": 12332, "喀": 12333, "盡": 12334, "瘾": 12335, "沸": 12336, "刹": 12337, "堅": 12338, "鍵": 12339, "囚": 12340, "祂": 12341, "贼": 12342, "锚": 12343, "榄": 12344, "🤣": 12345, "匠": 12346, "慨": 12347, "榴": 12348, "淹": 12349, "徽": 12350, "舟": 12351, "啸": 12352, "舶": 12353, "沥": 12354, "梨": 12355, "飛": 12356, "纲": 12357, "檬": 12358, "晃": 12359, "盯": 12360, "針": 12361, "禅": 12362, "迦": 12363, "嘿": 12364, "細": 12365, "柠": 12366, "魚": 12367, "狄": 12368, "勿": 12369, "羡": 12370, "坊": 12371, "庇": 12372, "庸": 12373, "橄": 12374, "肆": 12375, "坪": 12376, "杠": 12377, "瑜": 12378, "逗": 12379, "扯": 12380, "烏": 12381, "睹": 12382, "籽": 12383, "塘": 12384, "凋": 12385, "媽": 12386, "泼": 12387, "趁": 12388, "痘": 12389, "蛙": 12390, "耍": 12391, "糙": 12392, "棚": 12393, "镍": 12394, "捧": 12395, "沮": 12396, "θ": 12397, "沾": 12398, "烫": 12399, "僧": 12400, "菩": 12401, "哺": 12402, "茫": 12403, "損": 12404, "盼": 12405, "謂": 12406, "辽": 12407, "鞭": 12408, "魯": 12409, "躁": 12410, "辊": 12411, "敘": 12412, "簧": 12413, "勉": 12414, "腕": 12415, "芙": 12416, "轿": 12417, "蔡": 12418, "鲨": 12419, "▲": 12420, "韓": 12421, "冶": 12422, "屿": 12423, "杏": 12424, "絡": 12425, "萌": 12426, "廓": 12427, "玄": 12428, "侠": 12429, "掠": 12430, "梭": 12431, "棘": 12432, "範": 12433, "菇": 12434, "β": 12435, "谴": 12436, "錄": 12437, "粪": 12438, "茅": 12439, "逾": 12440, "匪": 12441, "姨": 12442, "杭": 12443, "豹": 12444, "橱": 12445, "晴": 12446, "蘇": 12447, "篷": 12448, "烛": 12449, "敞": 12450, "軟": 12451, "啥": 12452, "緩": 12453, "臉": 12454, "泻": 12455, "畴": 12456, "唉": 12457, "矫": 12458, "昔": 12459, "匯": 12460, "唔": 12461, "娅": 12462, "浑": 12463, "锯": 12464, "懷": 12465, "龍": 12466, "珀": 12467, "娶": 12468, "拐": 12469, "顧": 12470, "逸": 12471, "樱": 12472, "埔": 12473, "惰": 12474, "榮": 12475, "週": 12476, "绣": 12477, "敷": 12478, "闸": 12479, "馨": 12480, "彈": 12481, "豚": 12482, "陸": 12483, "灶": 12484, "疟": 12485, "衔": 12486, "唑": 12487, "锤": 12488, "島": 12489, "谦": 12490, "拦": 12491, "驚": 12492, "俯": 12493, "嗨": 12494, "玲": 12495, "靈": 12496, "堤": 12497, "碧": 12498, "薇": 12499, "赎": 12500, "😅": 12501, "胱": 12502, "鸦": 12503, "園": 12504, "茂": 12505, "災": 12506, "禮": 12507, "颌": 12508, "勵": 12509, "孝": 12510, "😭": 12511, "哮": 12512, "歪": 12513, "谜": 12514, "洽": 12515, "渊": 12516, "腻": 12517, "镶": 12518, "哎": 12519, "辟": 12520, "伺": 12521, "攝": 12522, "階": 12523, "畫": 12524, "窦": 12525, "₹": 12526, "竖": 12527, "澡": 12528, "歸": 12529, "畢": 12530, "‍": 12531, "粥": 12532, "尬": 12533, "巩": 12534, "贱": 12535, "挨": 12536, "帘": 12537, "辖": 12538, "愧": 12539, "潛": 12540, "羟": 12541, "屎": 12542, "敛": 12543, "蒜": 12544, "冗": 12545, "蝴": 12546, "趟": 12547, "堕": 12548, "讀": 12549, "雜": 12550, "砸": 12551, "瞧": 12552, "妊": 12553, "聖": 12554, "賴": 12555, "翠": 12556, "愁": 12557, "缀": 12558, "闯": 12559, "嗜": 12560, "钦": 12561, "噬": 12562, "潭": 12563, "冥": 12564, "鼎": 12565, "绸": 12566, "铭": 12567, "铬": 12568, "亭": 12569, "绞": 12570, "缔": 12571, "賽": 12572, "匿": 12573, "棄": 12574, "舊": 12575, "炫": 12576, "訓": 12577, "毅": 12578, "φ": 12579, "碌": 12580, "蓉": 12581, "阱": 12582, "曹": 12583, "馏": 12584, "卿": 12585, "寞": 12586, "穗": 12587, "妄": 12588, "坯": 12589, "妒": 12590, "姚": 12591, "暑": 12592, "鐵": 12593, "颂": 12594, "涤": 12595, "脖": 12596, "鸿": 12597, "澄": 12598, "蝇": 12599, "袜": 12600, "蜘": 12601, "汰": 12602, "崖": 12603, "捍": 12604, "疮": 12605, "谣": 12606, "娠": 12607, "磺": 12608, "尴": 12609, "鬥": 12610, "椰": 12611, "橘": 12612, "輸": 12613, "泣": 12614, "礁": 12615, "吕": 12616, "瘫": 12617, "腳": 12618, "饪": 12619, "晤": 12620, "氰": 12621, "椭": 12622, "笛": 12623, "複": 12624, "叭": 12625, "ö": 12626, "窑": 12627, "鬆": 12628, "冯": 12629, "熬": 12630, "傍": 12631, "辜": 12632, "銷": 12633, "沼": 12634, "钞": 12635, "順": 12636, "兜": 12637, "窮": 12638, "碘": 12639, "醚": 12640, "铀": 12641, "躯": 12642, "懈": 12643, "熏": 12644, "黛": 12645, "侈": 12646, "疡": 12647, "盎": 12648, "絲": 12649, "餘": 12650, "ā": 12651, "●": 12652, "匈": 12653, "爲": 12654, "剔": 12655, "恤": 12656, "輪": 12657, "靴": 12658, "厢": 12659, "捏": 12660, "溉": 12661, "纬": 12662, "锰": 12663, "睾": 12664, "侍": 12665, "呕": 12666, "挠": 12667, "仗": 12668, "恕": 12669, "肋": 12670, "『": 12671, "缚": 12672, "夢": 12673, "灿": 12674, "肘": 12675, "👍": 12676, "刃": 12677, "漸": 12678, "贏": 12679, "贿": 12680, "辰": 12681, "ç": 12682, "苔": 12683, "瑚": 12684, "』": 12685, "阈": 12686, "陣": 12687, "垮": 12688, "娇": 12689, "淇": 12690, "瀑": 12691, "岳": 12692, "緣": 12693, "訊": 12694, "旬": 12695, "礙": 12696, "襲": 12697, "帧": 12698, "弈": 12699, "魁": 12700, "钝": 12701, "陽": 12702, "烁": 12703, "⁄": 12704, "坟": 12705, "昭": 12706, "柬": 12707, "陋": 12708, "搁": 12709, "煽": 12710, "哨": 12711, "慷": 12712, "沦": 12713, "課": 12714, "濒": 12715, "彰": 12716, "骼": 12717, "憂": 12718, "诵": 12719, "谬": 12720, "ó": 12721, "ا": 12722, "鳞": 12723, "姬": 12724, "琐": 12725, "哑": 12726, "恳": 12727, "鳄": 12728, "狸": 12729, "乞": 12730, "汪": 12731, "焚": 12732, "鸽": 12733, "斋": 12734, "稠": 12735, "簿": 12736, "哩": 12737, "渍": 12738, "嗽": 12739, "簽": 12740, "牠": 12741, "谍": 12742, "驼": 12743, "憎": 12744, "獎": 12745, "亩": 12746, "捆": 12747, "稚": 12748, "窥": 12749, "垢": 12750, "戀": 12751, "淫": 12752, "趨": 12753, "霞": 12754, "昧": 12755, "肮": 12756, "袍": 12757, "陳": 12758, "嫉": 12759, "μ": 12760, "陕": 12761, "ä": 12762, "瞄": 12763, "擺": 12764, "飙": 12765, "嚼": 12766, "熙": 12767, "癫": 12768, "舔": 12769, "墅": 12770, "吾": 12771, "貝": 12772, "侮": 12773, "勺": 12774, "掀": 12775, "圭": 12776, "硼": 12777, "栗": 12778, "練": 12779, "靜": 12780, "饶": 12781, "掷": 12782, "旷": 12783, "檢": 12784, "塊": 12785, "í": 12786, "痰": 12787, "锂": 12788, "頂": 12789, "臀": 12790, "載": 12791, "铲": 12792, "浊": 12793, "啟": 12794, "沌": 12795, "稽": 12796, "蚂": 12797, "雞": 12798, "嗅": 12799, "勋": 12800, "誠": 12801, "鹤": 12802, "哟": 12803, "審": 12804, "遺": 12805, "煩": 12806, "耸": 12807, "栈": 12808, "甩": 12809, "婦": 12810, "訪": 12811, "捡": 12812, "睁": 12813, "拙": 12814, "棱": 12815, "飓": 12816, "â": 12817, "紊": 12818, "媚": 12819, "跪": 12820, "赁": 12821, "鐘": 12822, "腥": 12823, "蓋": 12824, "汞": 12825, "脓": 12826, "卒": 12827, "叮": 12828, "憲": 12829, "蚕": 12830, "蜗": 12831, "砌": 12832, "惕": 12833, "撼": 12834, "颊": 12835, "琪": 12836, "紐": 12837, "趾": 12838, "館": 12839, "滅": 12840, "蠕": 12841, "卦": 12842, "🏻": 12843, "寬": 12844, "疤": 12845, "贞": 12846, "違": 12847, "杖": 12848, "诅": 12849, "驯": 12850, "驴": 12851, "揮": 12852, "湘": 12853, "漲": 12854, "铵": 12855, "庫": 12856, "裏": 12857, "瞒": 12858, "梵": 12859, "诠": 12860, "涩": 12861, "婪": 12862, "詞": 12863, "蒋": 12864, "廠": 12865, "賺": 12866, "亥": 12867, "沐": 12868, "萊": 12869, "訂": 12870, "簇": 12871, "崭": 12872, "睫": 12873, "咐": 12874, "掏": 12875, "哄": 12876, "胳": 12877, "佑": 12878, "飯": 12879, "俘": 12880, "檳": 12881, "猶": 12882, "筆": 12883, "獻": 12884, "緒": 12885, "償": 12886, "崔": 12887, "盔": 12888, "翘": 12889, "隱": 12890, "枣": 12891, "淨": 12892, "葉": 12893, "鄙": 12894, "秉": 12895, "卤": 12896, "诡": 12897, "蒲": 12898, "虔": 12899, "咕": 12900, "絮": 12901, "轩": 12902, "❤": 12903, "宮": 12904, "崎": 12905, "斐": 12906, "肴": 12907, "à": 12908, "冤": 12909, "抨": 12910, "瞎": 12911, "́": 12912, "拷": 12913, "诀": 12914, "隻": 12915, "蹲": 12916, "騙": 12917, "戊": 12918, "繫": 12919, "藝": 12920, "吟": 12921, "姊": 12922, "膊": 12923, "蝠": 12924, "悖": 12925, "溅": 12926, "瞻": 12927, "紛": 12928, "倘": 12929, "秤": 12930, "聋": 12931, "膳": 12932, "凰": 12933, "咎": 12934, "淤": 12935, "聆": 12936, "吩": 12937, "挚": 12938, "焙": 12939, "顷": 12940, "🤔": 12941, "酋": 12942, "啶": 12943, "輯": 12944, "弛": 12945, "桨": 12946, "窟": 12947, "敵": 12948, "å": 12949, "扼": 12950, "毀": 12951, "瞩": 12952, "陡": 12953, "睐": 12954, "麥": 12955, "鳥": 12956, "宵": 12957, "紙": 12958, "喧": 12959, "痫": 12960, "碼": 12961, "蹄": 12962, "朽": 12963, "蔗": 12964, "蔑": 12965, "侨": 12966, "屡": 12967, "諸": 12968, "遲": 12969, "赦": 12970, "熄": 12971, "葵": 12972, "馅": 12973, "骆": 12974, "̄": 12975, "γ": 12976, "遂": 12977, "靡": 12978, "丫": 12979, "淆": 12980, "荫": 12981, "钳": 12982, "纶": 12983, "觅": 12984, "凿": 12985, "鏡": 12986, "苛": 12987, "釉": 12988, "吡": 12989, "娩": 12990, "牡": 12991, "鄰": 12992, "◆": 12993, "劈": 12994, "捣": 12995, "斩": 12996, "犀": 12997, "茜": 12998, "馀": 12999, "凳": 13000}